{
  "version": "1.0",
  "truncation": null,
  "padding": null,
  "added_tokens": [
    {
      "id": 0,
      "content": "<|endoftext|>",
      "single_word": false,
      "lstrip": false,
      "rstrip": false,
      "normalized": false,
      "special": true
    },
    {
      "id": 1,
      "content": "<|im_start|>",
      "single_word": false,
      "lstrip": false,
      "rstrip": false,
      "normalized": false,
      "special": true
    },
    {
      "id": 2,
      "content": "<|im_end|>",
      "single_word": false,
      "lstrip": false,
      "rstrip": false,
      "normalized": false,
      "special": true
    },
    {
      "id": 3,
      "content": "<repo_name>",
      "single_word": false,
      "lstrip": false,
      "rstrip": false,
      "normalized": false,
      "special": true
    },
    {
      "id": 4,
      "content": "<reponame>",
      "single_word": false,
      "lstrip": false,
      "rstrip": false,
      "normalized": false,
      "special": true
    },
    {
      "id": 5,
      "content": "<file_sep>",
      "single_word": false,
      "lstrip": false,
      "rstrip": false,
      "normalized": false,
      "special": true
    },
    {
      "id": 6,
      "content": "<filename>",
      "single_word": false,
      "lstrip": false,
      "rstrip": false,
      "normalized": false,
      "special": true
    },
    {
      "id": 7,
      "content": "<gh_stars>",
      "single_word": false,
      "lstrip": false,
      "rstrip": false,
      "normalized": false,
      "special": true
    },
    {
      "id": 8,
      "content": "<issue_start>",
      "single_word": false,
      "lstrip": false,
      "rstrip": false,
      "normalized": false,
      "special": true
    },
    {
      "id": 9,
      "content": "<issue_comment>",
      "single_word": false,
      "lstrip": false,
      "rstrip": false,
      "normalized": false,
      "special": true
    },
    {
      "id": 10,
      "content": "<issue_closed>",
      "single_word": false,
      "lstrip": false,
      "rstrip": false,
      "normalized": false,
      "special": true
    },
    {
      "id": 11,
      "content": "<jupyter_start>",
      "single_word": false,
      "lstrip": false,
      "rstrip": false,
      "normalized": false,
      "special": true
    },
    {
      "id": 12,
      "content": "<jupyter_text>",
      "single_word": false,
      "lstrip": false,
      "rstrip": false,
      "normalized": false,
      "special": true
    },
    {
      "id": 13,
      "content": "<jupyter_code>",
      "single_word": false,
      "lstrip": false,
      "rstrip": false,
      "normalized": false,
      "special": true
    },
    {
      "id": 14,
      "content": "<jupyter_output>",
      "single_word": false,
      "lstrip": false,
      "rstrip": false,
      "normalized": false,
      "special": true
    },
    {
      "id": 15,
      "content": "<jupyter_script>",
      "single_word": false,
      "lstrip": false,
      "rstrip": false,
      "normalized": false,
      "special": true
    },
    {
      "id": 16,
      "content": "<empty_output>",
      "single_word": false,
      "lstrip": false,
      "rstrip": false,
      "normalized": false,
      "special": true
    }
  ],
  "normalizer": null,
  "pre_tokenizer": {
    "type": "ByteLevel",
    "add_prefix_space": false,
    "trim_offsets": true,
    "use_regex": true
  },
  "post_processor": {
    "type": "TemplateProcessing",
    "single": [
      {
        "Sequence": {
          "id": "A",
          "type_id": 0
        }
      }
    ],
    "pair": [
      {
        "Sequence": {
          "id": "A",
          "type_id": 0
        }
      },
      {
        "Sequence": {
          "id": "B",
          "type_id": 1
        }
      }
    ],
    "special_tokens": {}
  },
  "decoder": {
    "type": "ByteLevel",
    "add_prefix_space": true,
    "trim_offsets": true,
    "use_regex": true
  },
  "model": {
    "type": "BPE",
    "dropout": null,
    "unk_token": null,
    "continuing_subword_prefix": "",
    "end_of_word_suffix": "",
    "fuse_unk": false,
    "byte_fallback": false,
    "ignore_merges": false,
    "vocab": {
      "<|endoftext|>": 0,
      "<|im_start|>": 1,
      "<|im_end|>": 2,
      "<repo_name>": 3,
      "<reponame>": 4,
      "<file_sep>": 5,
      "<filename>": 6,
      "<gh_stars>": 7,
      "<issue_start>": 8,
      "<issue_comment>": 9,
      "<issue_closed>": 10,
      "<jupyter_start>": 11,
      "<jupyter_text>": 12,
      "<jupyter_code>": 13,
      "<jupyter_output>": 14,
      "<jupyter_script>": 15,
      "<empty_output>": 16,
      "!": 17,
      "\"": 18,
      "#": 19,
      "$": 20,
      "%": 21,
      "&": 22,
      "'": 23,
      "(": 24,
      ")": 25,
      "*": 26,
      "+": 27,
      ",": 28,
      "-": 29,
      ".": 30,
      "/": 31,
      "0": 32,
      "1": 33,
      "2": 34,
      "3": 35,
      "4": 36,
      "5": 37,
      "6": 38,
      "7": 39,
      "8": 40,
      "9": 41,
      ":": 42,
      ";": 43,
      "<": 44,
      "=": 45,
      ">": 46,
      "?": 47,
      "@": 48,
      "A": 49,
      "B": 50,
      "C": 51,
      "D": 52,
      "E": 53,
      "F": 54,
      "G": 55,
      "H": 56,
      "I": 57,
      "J": 58,
      "K": 59,
      "L": 60,
      "M": 61,
      "N": 62,
      "O": 63,
      "P": 64,
      "Q": 65,
      "R": 66,
      "S": 67,
      "T": 68,
      "U": 69,
      "V": 70,
      "W": 71,
      "X": 72,
      "Y": 73,
      "Z": 74,
      "[": 75,
      "\\": 76,
      "]": 77,
      "^": 78,
      "_": 79,
      "`": 80,
      "a": 81,
      "b": 82,
      "c": 83,
      "d": 84,
      "e": 85,
      "f": 86,
      "g": 87,
      "h": 88,
      "i": 89,
      "j": 90,
      "k": 91,
      "l": 92,
      "m": 93,
      "n": 94,
      "o": 95,
      "p": 96,
      "q": 97,
      "r": 98,
      "s": 99,
      "t": 100,
      "u": 101,
      "v": 102,
      "w": 103,
      "x": 104,
      "y": 105,
      "z": 106,
      "{": 107,
      "|": 108,
      "}": 109,
      "~": 110,
      "\u00a1": 111,
      "\u00a2": 112,
      "\u00a3": 113,
      "\u00a4": 114,
      "\u00a5": 115,
      "\u00a6": 116,
      "\u00a7": 117,
      "\u00a8": 118,
      "\u00a9": 119,
      "\u00aa": 120,
      "\u00ab": 121,
      "\u00ac": 122,
      "\u00ae": 123,
      "\u00af": 124,
      "\u00b0": 125,
      "\u00b1": 126,
      "\u00b2": 127,
      "\u00b3": 128,
      "\u00b4": 129,
      "\u00b5": 130,
      "\u00b6": 131,
      "\u00b7": 132,
      "\u00b8": 133,
      "\u00b9": 134,
      "\u00ba": 135,
      "\u00bb": 136,
      "\u00bc": 137,
      "\u00bd": 138,
      "\u00be": 139,
      "\u00bf": 140,
      "\u00c2": 141,
      "\u00c3": 142,
      "\u00c4": 143,
      "\u00c5": 144,
      "\u00c6": 145,
      "\u00c7": 146,
      "\u00c8": 147,
      "\u00c9": 148,
      "\u00ca": 149,
      "\u00cb": 150,
      "\u00cc": 151,
      "\u00cd": 152,
      "\u00ce": 153,
      "\u00cf": 154,
      "\u00d0": 155,
      "\u00d1": 156,
      "\u00d2": 157,
      "\u00d3": 158,
      "\u00d4": 159,
      "\u00d5": 160,
      "\u00d6": 161,
      "\u00d7": 162,
      "\u00d8": 163,
      "\u00d9": 164,
      "\u00da": 165,
      "\u00db": 166,
      "\u00dc": 167,
      "\u00dd": 168,
      "\u00de": 169,
      "\u00df": 170,
      "\u00e0": 171,
      "\u00e1": 172,
      "\u00e2": 173,
      "\u00e3": 174,
      "\u00e4": 175,
      "\u00e5": 176,
      "\u00e6": 177,
      "\u00e7": 178,
      "\u00e8": 179,
      "\u00e9": 180,
      "\u00ea": 181,
      "\u00eb": 182,
      "\u00ec": 183,
      "\u00ed": 184,
      "\u00ee": 185,
      "\u00ef": 186,
      "\u00f0": 187,
      "\u00f3": 188,
      "\u00f4": 189,
      "\u0100": 190,
      "\u0101": 191,
      "\u0102": 192,
      "\u0103": 193,
      "\u0105": 194,
      "\u0107": 195,
      "\u0108": 196,
      "\u0109": 197,
      "\u010a": 198,
      "\u010b": 199,
      "\u010c": 200,
      "\u010d": 201,
      "\u010e": 202,
      "\u010f": 203,
      "\u0110": 204,
      "\u0111": 205,
      "\u0112": 206,
      "\u0115": 207,
      "\u0117": 208,
      "\u0118": 209,
      "\u0119": 210,
      "\u011a": 211,
      "\u011b": 212,
      "\u011c": 213,
      "\u011e": 214,
      "\u011f": 215,
      "\u0120": 216,
      "\u0121": 217,
      "\u0122": 218,
      "\u0123": 219,
      "\u0124": 220,
      "\u0125": 221,
      "\u0126": 222,
      "\u0127": 223,
      "\u0128": 224,
      "\u0129": 225,
      "\u012a": 226,
      "\u012b": 227,
      "\u012c": 228,
      "\u012d": 229,
      "\u012e": 230,
      "\u012f": 231,
      "\u0130": 232,
      "\u0131": 233,
      "\u0132": 234,
      "\u0133": 235,
      "\u0134": 236,
      "\u0135": 237,
      "\u0136": 238,
      "\u0137": 239,
      "\u0138": 240,
      "\u0139": 241,
      "\u013a": 242,
      "\u013b": 243,
      "\u013c": 244,
      "\u013d": 245,
      "\u013e": 246,
      "\u013f": 247,
      "\u0140": 248,
      "\u0141": 249,
      "\u0142": 250,
      "\u0143": 251,
      "\u0120t": 252,
      "\u0120a": 253,
      "in": 254,
      "he": 255,
      "\u0120\u0120": 256,
      "re": 257,
      "on": 258,
      "er": 259,
      "\u0120the": 260,
      "at": 261,
      "\u0120s": 262,
      "\u0120o": 263,
      "en": 264,
      "\u0120c": 265,
      "es": 266,
      "\u0120w": 267,
      "nd": 268,
      "it": 269,
      "or": 270,
      "is": 271,
      "al": 272,
      "\u0120p": 273,
      "ing": 274,
      "\u0120f": 275,
      "an": 276,
      "ed": 277,
      "\u0120b": 278,
      "ou": 279,
      "ar": 280,
      "\u0120in": 281,
      "\u0120of": 282,
      "\u0120m": 283,
      "\u0120and": 284,
      "ion": 285,
      "ic": 286,
      "\u0120d": 287,
      "\u0120to": 288,
      "\u0120\u0120\u0120\u0120": 289,
      "le": 290,
      "ro": 291,
      "as": 292,
      "ent": 293,
      "\u0120h": 294,
      "\u0120th": 295,
      "ct": 296,
      "\u0120e": 297,
      "\u0120re": 298,
      "el": 299,
      "om": 300,
      "il": 301,
      "st": 302,
      "\u0120l": 303,
      "\u0120n": 304,
      "et": 305,
      "im": 306,
      "ve": 307,
      "ol": 308,
      "ation": 309,
      "\u0120g": 310,
      "id": 311,
      "\u0120T": 312,
      "se": 313,
      "\u0120is": 314,
      "ur": 315,
      "ut": 316,
      "ra": 317,
      "ly": 318,
      "ce": 319,
      "ot": 320,
      "\u00e2\u0122": 321,
      "ch": 322,
      "ow": 323,
      "ig": 324,
      "\u0120be": 325,
      "\u0120u": 326,
      "\u0120for": 327,
      "\u0120st": 328,
      "\u0120y": 329,
      "\u0120A": 330,
      "ver": 331,
      "am": 332,
      "\u0120\u0120\u0120": 333,
      "\u0120S": 334,
      "\u0120on": 335,
      "ul": 336,
      "ir": 337,
      "\u0120that": 338,
      "\u0120I": 339,
      "\u0120C": 340,
      "ay": 341,
      "if": 342,
      "ith": 343,
      "ad": 344,
      "\u0120con": 345,
      "\u0120you": 346,
      "\u0120as": 347,
      "\u0120pro": 348,
      "her": 349,
      "od": 350,
      "\u0120with": 351,
      "ter": 352,
      "\u0120\u0120\u0120\u0120\u0120\u0120\u0120\u0120": 353,
      "\u0120an": 354,
      "\u0120or": 355,
      "\u0120wh": 356,
      "\u0120it": 357,
      "ment": 358,
      "\u0120are": 359,
      "\u0120al": 360,
      "ge": 361,
      "ess": 362,
      "ist": 363,
      "\u0120ex": 364,
      "\u0120(": 365,
      "ers": 366,
      "\u0120de": 367,
      "ate": 368,
      "ab": 369,
      "ies": 370,
      "op": 371,
      "\u0120M": 372,
      "th": 373,
      "ect": 374,
      "res": 375,
      "us": 376,
      "\u0120P": 377,
      "\u0120The": 378,
      "\u0120com": 379,
      "iv": 380,
      "est": 381,
      "um": 382,
      "ity": 383,
      "\u0120he": 384,
      "qu": 385,
      "\u0120v": 386,
      "ac": 387,
      "ill": 388,
      "\u0120B": 389,
      "ore": 390,
      "em": 391,
      "\u0120we": 392,
      "\u0120su": 393,
      "pp": 394,
      "os": 395,
      "ke": 396,
      "and": 397,
      "rom": 398,
      "nt": 399,
      "ld": 400,
      "ort": 401,
      "ain": 402,
      "ant": 403,
      "ive": 404,
      "igh": 405,
      "oc": 406,
      "\u0120H": 407,
      "\u0120W": 408,
      "ial": 409,
      "\u0120ch": 410,
      "\u0120by": 411,
      "\u0120r": 412,
      "ud": 413,
      "\u0120E": 414,
      "\u0120\u0120\u0120\u0120\u0120\u0120\u0120": 415,
      "\u0120can": 416,
      "\u00e2\u0122\u013b": 417,
      "\u0120at": 418,
      "un": 419,
      "\u0120ne": 420,
      "\u0120ha": 421,
      "\u0120D": 422,
      "--": 423,
      "ure": 424,
      "\u0120le": 425,
      "\u0120F": 426,
      "\u0120se": 427,
      "\u0120R": 428,
      "\u0120from": 429,
      "\u0120en": 430,
      "ri": 431,
      "pe": 432,
      "ical": 433,
      "art": 434,
      "og": 435,
      "\u0120was": 436,
      "pt": 437,
      "ions": 438,
      "pl": 439,
      "rou": 440,
      "\u0120not": 441,
      "\u0120N": 442,
      "\u0120sh": 443,
      "\u0120im": 444,
      "ight": 445,
      "\u0120=": 446,
      "out": 447,
      "\u010a\u0120\u0120\u0120\u0120\u0120\u0120\u0120": 448,
      "all": 449,
      "\u0120L": 450,
      "\u0120this": 451,
      "\u0120G": 452,
      "\u0120ab": 453,
      "ag": 454,
      "red": 455,
      "per": 456,
      "\u0120have": 457,
      "\u0120wor": 458,
      "\u0120\u00e2\u0122": 459,
      "gh": 460,
      "our": 461,
      "ine": 462,
      "iz": 463,
      "\u0120int": 464,
      "ome": 465,
      "\u010a\u0120\u0120\u0120\u0120\u0120\u0120\u0120\u0120": 466,
      "ust": 467,
      "\u0120us": 468,
      "\u0120your": 469,
      "ould": 470,
      "act": 471,
      "\u010a\u0120\u0120\u0120": 472,
      "age": 473,
      "ost": 474,
      "\u0120pl": 475,
      "\u0120\"": 476,
      "ard": 477,
      "ell": 478,
      "ther": 479,
      "\u0120their": 480,
      "ult": 481,
      "elf": 482,
      "ated": 483,
      "ff": 484,
      "ich": 485,
      "end": 486,
      "ans": 487,
      "ous": 488,
      "ide": 489,
      "ru": 490,
      "ations": 491,
      "\u0120O": 492,
      "\u0120ad": 493,
      "ak": 494,
      "\u0120whe": 495,
      "du": 496,
      "cl": 497,
      "\u0120cont": 498,
      "\u0120res": 499,
      "ast": 500,
      "\u0120k": 501,
      "\u0120they": 502,
      "\u0120comp": 503,
      "The": 504,
      "ib": 505,
      "'s": 506,
      "orm": 507,
      "ip": 508,
      "cc": 509,
      "\u0120dis": 510,
      "\u0120all": 511,
      "ap": 512,
      "ame": 513,
      "\u0120U": 514,
      "able": 515,
      "ong": 516,
      "ear": 517,
      "ere": 518,
      "ie": 519,
      "ass": 520,
      "\u0120imp": 521,
      "are": 522,
      "\u0120will": 523,
      "ance": 524,
      "\u0120Th": 525,
      "ind": 526,
      "\u0120which": 527,
      "ood": 528,
      "ary": 529,
      "\u0120J": 530,
      "ual": 531,
      "vel": 532,
      "\u0120In": 533,
      "ep": 534,
      "ence": 535,
      "\u0120do": 536,
      "one": 537,
      "ks": 538,
      "\u0120cl": 539,
      "\u0120more": 540,
      "ry": 541,
      "ia": 542,
      "\u0120te": 543,
      "\u0120j": 544,
      "ign": 545,
      "ue": 546,
      "ents": 547,
      "reat": 548,
      "\u0120me": 549,
      "\u0120other": 550,
      "\u0120un": 551,
      "ile": 552,
      "\u0120has": 553,
      "ach": 554,
      "\u0120man": 555,
      "ime": 556,
      "ction": 557,
      "ild": 558,
      "so": 559,
      "ress": 560,
      "ces": 561,
      "\u0120ar": 562,
      "\u0120about": 563,
      "\u0120but": 564,
      "av": 565,
      "\u0120app": 566,
      "\u0120per": 567,
      "oo": 568,
      "ice": 569,
      "ition": 570,
      "ater": 571,
      "ely": 572,
      "\u00e2\u0122\u013f": 573,
      "\u0120sp": 574,
      "ake": 575,
      "ase": 576,
      "\u0120ev": 577,
      "\u0120out": 578,
      "ors": 579,
      "ack": 580,
      "ens": 581,
      "\u0120one": 582,
      "very": 583,
      "form": 584,
      "\u0120if": 585,
      "----": 586,
      "ory": 587,
      "\u0120so": 588,
      "ord": 589,
      "ace": 590,
      "int": 591,
      "\u0120were": 592,
      "ber": 593,
      "nder": 594,
      ").": 595,
      "\u0120li": 596,
      "\u0120also": 597,
      "ount": 598,
      "\u0120part": 599,
      "\u0120comm": 600,
      "\u0120them": 601,
      "ose": 602,
      "au": 603,
      "ang": 604,
      "ci": 605,
      "\u0120stud": 606,
      "con": 607,
      "rit": 608,
      "ire": 609,
      "\u0120pe": 610,
      "ub": 611,
      "now": 612,
      "\u0120qu": 613,
      "\u0120up": 614,
      "\u0120sy": 615,
      "ings": 616,
      "\u0120who": 617,
      "\u0120into": 618,
      "\u0120\u00e2\u0122\u013e": 619,
      "ound": 620,
      "ish": 621,
      "\u0120pre": 622,
      "\u0120these": 623,
      "\u0120its": 624,
      "\u0120St": 625,
      "olog": 626,
      "iff": 627,
      "pec": 628,
      "\u010a\u0120\u0120\u0120\u0120\u0120\u0120\u0120\u0120\u0120\u0120\u0120": 629,
      "rough": 630,
      "ric": 631,
      "\u0120fe": 632,
      "\u0120bec": 633,
      "\u0120some": 634,
      "\u0120tra": 635,
      "ail": 636,
      "\u0120'": 637,
      "\u0120how": 638,
      "\u0120self": 639,
      "ree": 640,
      "\u0120ind": 641,
      "ities": 642,
      "),": 643,
      "king": 644,
      "\u0120when": 645,
      "ays": 646,
      "ph": 647,
      "vers": 648,
      "\u0120em": 649,
      "\u0120his": 650,
      "\u0120ro": 651,
      "ific": 652,
      "\u0120our": 653,
      "\u0120may": 654,
      "\u0120time": 655,
      "\u0120under": 656,
      "\u0120It": 657,
      "ments": 658,
      "\u0120K": 659,
      "ates": 660,
      "ople": 661,
      "ne": 662,
      "ite": 663,
      "\u0120col": 664,
      "\u0120there": 665,
      "\u0120bet": 666,
      "urn": 667,
      "cre": 668,
      "\u0120This": 669,
      "\u0120than": 670,
      "ough": 671,
      "ys": 672,
      "\u0120diff": 673,
      "ating": 674,
      "ob": 675,
      "te": 676,
      "we": 677,
      "\u0120Ch": 678,
      "ath": 679,
      "ject": 680,
      "\u0120tr": 681,
      "ally": 682,
      "low": 683,
      "erv": 684,
      "\u0120go": 685,
      "ms": 686,
      "\u0120cons": 687,
      "\u0120ag": 688,
      "\u0120ra": 689,
      "\u0120over": 690,
      "lect": 691,
      "\u0120rec": 692,
      "xt": 693,
      "\u0120pr": 694,
      "ple": 695,
      "tern": 696,
      "ian": 697,
      "\u0120acc": 698,
      "\u0120know": 699,
      "cess": 700,
      "\u0120people": 701,
      "\u0120like": 702,
      "ove": 703,
      "\u0120hel": 704,
      "\u0120act": 705,
      "ata": 706,
      "ons": 707,
      "\u0120des": 708,
      "lic": 709,
      "clud": 710,
      "ious": 711,
      "##": 712,
      "\u0120year": 713,
      "arn": 714,
      "\u0120such": 715,
      "\u0120rel": 716,
      "\u0120V": 717,
      "\u0120Y": 718,
      "\u0120been": 719,
      "row": 720,
      "ef": 721,
      "\u0120use": 722,
      "ren": 723,
      "\u0120help": 724,
      "\u0120new": 725,
      "get": 726,
      "):": 727,
      "alth": 728,
      "irst": 729,
      "ert": 730,
      "\u0120-": 731,
      "\u0120what": 732,
      "ause": 733,
      "eth": 734,
      "les": 735,
      "\u0120would": 736,
      "\u0120need": 737,
      "\u0120through": 738,
      "ful": 739,
      "stem": 740,
      "uring": 741,
      "round": 742,
      "\u0120sa": 743,
      "\u0120am": 744,
      "\u0120eff": 745,
      "\u0120work": 746,
      "ics": 747,
      "velop": 748,
      "ov": 749,
      "\u0120any": 750,
      "ool": 751,
      "\u0120import": 752,
      "\u0120def": 753,
      "\u0120bl": 754,
      "ular": 755,
      "ures": 756,
      "\u0120ass": 757,
      "\u0120spec": 758,
      "\u0120gen": 759,
      "\u0120tw": 760,
      "\u0120had": 761,
      "rib": 762,
      "mer": 763,
      "ll": 764,
      "\u0120includ": 765,
      "ced": 766,
      "\u0120off": 767,
      "\u0120most": 768,
      "ise": 769,
      "hed": 770,
      "self": 771,
      "\u0120prov": 772,
      "port": 773,
      "iss": 774,
      "ract": 775,
      "ange": 776,
      "\u0120ph": 777,
      "ict": 778,
      "\u0120reg": 779,
      "ational": 780,
      "als": 781,
      "\u0120differe": 782,
      "ility": 783,
      "\u0120ac": 784,
      "pect": 785,
      "oss": 786,
      "\u0120no": 787,
      "In": 788,
      "oth": 789,
      "ook": 790,
      "ative": 791,
      "ark": 792,
      "old": 793,
      "\u0120ob": 794,
      "hen": 795,
      "\u0120produ": 796,
      "\u0120inv": 797,
      "\u0120mod": 798,
      "\u0120develop": 799,
      "\u0120many": 800,
      "\u0120di": 801,
      "\u0120rem": 802,
      "\u0120add": 803,
      "\u0120used": 804,
      "\u0120only": 805,
      "\u0120sc": 806,
      "fter": 807,
      "\u0120first": 808,
      "ween": 809,
      "\u0120Un": 810,
      "\u0120child": 811,
      "ible": 812,
      "ten": 813,
      "ram": 814,
      "uc": 815,
      "\u0120\u00e2\u0122\u0135": 816,
      "\u0120system": 817,
      "arch": 818,
      "\u0120att": 819,
      "\u0120get": 820,
      "ased": 821,
      "\u0120inst": 822,
      "ower": 823,
      "com": 824,
      "cept": 825,
      "\u0120between": 826,
      "\u0120two": 827,
      "**": 828,
      "\u0120ret": 829,
      "ife": 830,
      "chn": 831,
      "\u0120fl": 832,
      "erm": 833,
      "\u0120inf": 834,
      "\u0120learn": 835,
      "ize": 836,
      "\u0120where": 837,
      "\u0120sur": 838,
      "wn": 839,
      "\u0120sub": 840,
      "\u0120exam": 841,
      "its": 842,
      "\u0120inter": 843,
      "\u0120po": 844,
      "own": 845,
      "ew": 846,
      "ond": 847,
      "\u0120pers": 848,
      "ts": 849,
      "\u0120trans": 850,
      "ps": 851,
      "hes": 852,
      "\u0120pol": 853,
      "ble": 854,
      "\u0120exper": 855,
      "\u0120could": 856,
      "\u0120co": 857,
      "\u0120supp": 858,
      "ss": 859,
      "ution": 860,
      "\u0120num": 861,
      "ting": 862,
      "ng": 863,
      "\u0120health": 864,
      "\u0120sm": 865,
      "ty": 866,
      "ural": 867,
      "\u0120should": 868,
      "ern": 869,
      "gan": 870,
      "\u0120str": 871,
      "ever": 872,
      "cy": 873,
      "\u0120her": 874,
      "ues": 875,
      "\u0120well": 876,
      "\u0120bu": 877,
      "ily": 878,
      "stand": 879,
      "ident": 880,
      "erg": 881,
      "oci": 882,
      "\u0120ty": 883,
      "ines": 884,
      "ied": 885,
      "\u0120val": 886,
      "\u0120pres": 887,
      "ex": 888,
      "\u0120expl": 889,
      "__": 890,
      "\u0120var": 891,
      "fore": 892,
      "\u0120rese": 893,
      "aking": 894,
      "\u0120sim": 895,
      "\u0120different": 896,
      "\u0120every": 897,
      "ives": 898,
      "ology": 899,
      "ink": 900,
      "ick": 901,
      "\u0120ke": 902,
      "ade": 903,
      "\u0120high": 904,
      "\u0120world": 905,
      "ature": 906,
      "\u0120#": 907,
      "\u0120even": 908,
      "\u0120He": 909,
      "\u0120form": 910,
      "ists": 911,
      "aw": 912,
      "\u0120water": 913,
      "\u0120sign": 914,
      "\u0120just": 915,
      "--------": 916,
      "ants": 917,
      "ism": 918,
      "\u0120make": 919,
      "vent": 920,
      "\u0120exp": 921,
      "oy": 922,
      "',": 923,
      "ness": 924,
      "uch": 925,
      "ft": 926,
      "ins": 927,
      "iew": 928,
      "\u0120years": 929,
      "\u0120ref": 930,
      "ds": 931,
      "\u0120set": 932,
      "\u0120[": 933,
      "\u0120commun": 934,
      "\u0120cre": 935,
      "ck": 936,
      "\u0120disc": 937,
      "arg": 938,
      "\u0120techn": 939,
      "\u0120data": 940,
      "chool": 941,
      "\u0120Re": 942,
      "ices": 943,
      "\u0120requ": 944,
      "\u010a\u0120\u0120\u0120\u0120\u0120\u0120\u0120\u0120\u0120\u0120\u0120\u0120\u0120\u0120\u0120\u0120": 945,
      "\u0120call": 946,
      "ically": 947,
      "\u0120hum": 948,
      "other": 949,
      "..": 950,
      "ax": 951,
      "ential": 952,
      "\u0120ed": 953,
      "ars": 954,
      "\u0120gra": 955,
      "iel": 956,
      "\u0120my": 957,
      "\u0120med": 958,
      "ward": 959,
      "ited": 960,
      "ruct": 961,
      "hat": 962,
      "\u0120see": 963,
      "\u0120det": 964,
      "\u0120then": 965,
      "\u0120result": 966,
      "\u0120those": 967,
      "ually": 968,
      "ages": 969,
      "\u0120way": 970,
      "\u0120each": 971,
      "formation": 972,
      "\u0120ins": 973,
      "hip": 974,
      "\u0120because": 975,
      "ection": 976,
      "\u0120effect": 977,
      "\u0120bel": 978,
      "\u0120while": 979,
      "\u0120process": 980,
      "\u0120during": 981,
      "'t": 982,
      "\u0120found": 983,
      "\u0120art": 984,
      "\u0120count": 985,
      "\u0120long": 986,
      "\u0120pat": 987,
      "\u0120dec": 988,
      "\u0120fol": 989,
      "\u0120after": 990,
      "\u0120gener": 991,
      "ron": 992,
      "\u0120ext": 993,
      "arm": 994,
      "meric": 995,
      "\u0120cent": 996,
      "ety": 997,
      "ands": 998,
      "\u0120incre": 999,
      "()": 1000,
      "\u0120loc": 1001,
      "\",": 1002,
      "\u0120return": 1003,
      "\u010a\u010a\u0120\u0120\u0120": 1004,
      "ized": 1005,
      "\u0120dist": 1006,
      "led": 1007,
      "\u0120prog": 1008,
      "iron": 1009,
      "ient": 1010,
      "\u0120sk": 1011,
      "\u0120read": 1012,
      "\u0120ent": 1013,
      "imes": 1014,
      "\u0120using": 1015,
      "\u0120partic": 1016,
      "\u0120pub": 1017,
      "de": 1018,
      "arly": 1019,
      "\u0120ca": 1020,
      "\u0120cur": 1021,
      "\u0120lead": 1022,
      "\u0120aut": 1023,
      "\u0120rep": 1024,
      "els": 1025,
      "\u0120hist": 1026,
      "\u0120fact": 1027,
      "\u0120test": 1028,
      "\u0120life": 1029,
      "\u0120comple": 1030,
      "\u0120fam": 1031,
      "\u0120As": 1032,
      "ivid": 1033,
      "ivers": 1034,
      "\u0120very": 1035,
      "\u0120being": 1036,
      "\u0120fun": 1037,
      "\u0120own": 1038,
      "ning": 1039,
      "read": 1040,
      "\u0120she": 1041,
      "\u0120find": 1042,
      "ody": 1043,
      "\u0120understand": 1044,
      "iqu": 1045,
      "\u0120We": 1046,
      "\u010a\u0120\u0120\u0120\u0120\u0120\u0120\u0120\u0120\u0120\u0120\u0120\u0120\u0120\u0120\u0120": 1047,
      "\u0120right": 1048,
      "ases": 1049,
      "cent": 1050,
      "ork": 1051,
      "\u0120Americ": 1052,
      "\u0120Pro": 1053,
      "\u0120resp": 1054,
      "\u0120person": 1055,
      "\u0120back": 1056,
      "gg": 1057,
      "\u0120students": 1058,
      "eng": 1059,
      "\u0120dep": 1060,
      "ved": 1061,
      "\u0120both": 1062,
      "ather": 1063,
      "ality": 1064,
      "\u0120Al": 1065,
      "\u0120follow": 1066,
      "\u0120writ": 1067,
      "\u0120For": 1068,
      "\u0120They": 1069,
      "\u0120important": 1070,
      "\u0120Con": 1071,
      "\u0120does": 1072,
      "\u0120How": 1073,
      "\u0120gl": 1074,
      "\u0120grow": 1075,
      "\u0120car": 1076,
      "ock": 1077,
      "put": 1078,
      "\u0120min": 1079,
      "tle": 1080,
      "\u0120Com": 1081,
      "Th": 1082,
      "\u0120much": 1083,
      "dition": 1084,
      "\u0120main": 1085,
      "\u0120conf": 1086,
      "viron": 1087,
      "ix": 1088,
      "\u0120che": 1089,
      "\u0120appro": 1090,
      "\u0120mon": 1091,
      "\u0120before": 1092,
      "\"\"": 1093,
      "\u0120If": 1094,
      "par": 1095,
      "\u0120information": 1096,
      "\u0120som": 1097,
      "\u0120grou": 1098,
      "ves": 1099,
      "\u0120sol": 1100,
      "\u0120sci": 1101,
      "\u0120el": 1102,
      "ving": 1103,
      "inal": 1104,
      "\u0120proble": 1105,
      "\u0120level": 1106,
      "ional": 1107,
      "\u0120study": 1108,
      "\u0120great": 1109,
      "up": 1110,
      "any": 1111,
      "\u0120end": 1112,
      "\u0120av": 1113,
      "\u0120food": 1114,
      "\u0120experi": 1115,
      "\u010a\u010a": 1116,
      "\u0120An": 1117,
      "nce": 1118,
      "io": 1119,
      "\u0120start": 1120,
      "ale": 1121,
      "\u0120children": 1122,
      "\u0120good": 1123,
      "\u0120might": 1124,
      "\u0120school": 1125,
      "eg": 1126,
      "\u0120within": 1127,
      "\u0120class": 1128,
      "\u0120often": 1129,
      "\u0120around": 1130,
      "uss": 1131,
      "ted": 1132,
      "\u0120cor": 1133,
      "ave": 1134,
      "\u0120made": 1135,
      "ering": 1136,
      "\u0120said": 1137,
      "\u0120show": 1138,
      "\u0120pop": 1139,
      "vern": 1140,
      "to": 1141,
      "\u0120same": 1142,
      ".,": 1143,
      "\u0120pract": 1144,
      "und": 1145,
      "ute": 1146,
      "\u0120too": 1147,
      "anc": 1148,
      "\u0120power": 1149,
      "\u0120lit": 1150,
      "\u0120research": 1151,
      "\u0120vis": 1152,
      "ier": 1153,
      "akes": 1154,
      "rain": 1155,
      "\u0120br": 1156,
      "\u0120design": 1157,
      "\u0120op": 1158,
      "ec": 1159,
      "rent": 1160,
      "\u0120provid": 1161,
      "\u0120activ": 1162,
      "\u0120again": 1163,
      "\u0120prot": 1164,
      "\u0120small": 1165,
      "\u0120Ar": 1166,
      "\u0120allow": 1167,
      "\u0120adv": 1168,
      "\u0120mem": 1169,
      "ocial": 1170,
      "\u0120mat": 1171,
      "ross": 1172,
      "itions": 1173,
      "\u0120serv": 1174,
      "ets": 1175,
      "\u0120care": 1176,
      "iving": 1177,
      "\u0120poss": 1178,
      "ividual": 1179,
      "pr": 1180,
      "\u0120less": 1181,
      "ode": 1182,
      "\u0120example": 1183,
      ".\u00e2\u0122\u013f": 1184,
      "air": 1185,
      "ethod": 1186,
      "\u0120down": 1187,
      "\u0120take": 1188,
      "==": 1189,
      "\u0120contin": 1190,
      "ters": 1191,
      "\u0120organ": 1192,
      "rol": 1193,
      "\u0120day": 1194,
      "the": 1195,
      "irect": 1196,
      "ield": 1197,
      "ince": 1198,
      "\u0120support": 1199,
      "vironment": 1200,
      "ital": 1201,
      "\u0120cult": 1202,
      "omen": 1203,
      "\u0120quest": 1204,
      "\u0120human": 1205,
      "\u0120You": 1206,
      "app": 1207,
      "\u0120treat": 1208,
      "\u0120now": 1209,
      "ined": 1210,
      "ished": 1211,
      "\u0120individual": 1212,
      "\u0120gu": 1213,
      "ared": 1214,
      "\u0120state": 1215,
      "\u0120These": 1216,
      "\u0120called": 1217,
      "\u0120Ind": 1218,
      "land": 1219,
      "\u0120equ": 1220,
      "val": 1221,
      "day": 1222,
      "der": 1223,
      "arge": 1224,
      "\u0120point": 1225,
      "ergy": 1226,
      "\u0120eng": 1227,
      "pro": 1228,
      "####": 1229,
      "\u0120number": 1230,
      "tt": 1231,
      "\u0120+": 1232,
      "\u0120cle": 1233,
      "\u0120redu": 1234,
      "\u0120build": 1235,
      "\u0120ser": 1236,
      "ization": 1237,
      "\u0120play": 1238,
      "\u0120though": 1239,
      "ral": 1240,
      "ven": 1241,
      "\u0120prof": 1242,
      "\u0120aw": 1243,
      "\u0120ris": 1244,
      "name": 1245,
      "ired": 1246,
      "ulation": 1247,
      "\u0120body": 1248,
      "\u0120But": 1249,
      "\u0120did": 1250,
      "\u0120must": 1251,
      "\u0120plan": 1252,
      "ains": 1253,
      "ency": 1254,
      "\u0120pos": 1255,
      "\u0120beh": 1256,
      "\u0120occ": 1257,
      "raph": 1258,
      "ences": 1259,
      "hers": 1260,
      "\u0120const": 1261,
      "\u0120aff": 1262,
      "\u0120cour": 1263,
      "\u0120est": 1264,
      "\u00e2\u0122\u0136": 1265,
      "\u0120inc": 1266,
      "\u0120pot": 1267,
      "\u0120Se": 1268,
      "acter": 1269,
      ".\"": 1270,
      "ources": 1271,
      "\u0120him": 1272,
      "\u0120common": 1273,
      "ull": 1274,
      "ories": 1275,
      "ately": 1276,
      "\u0120want": 1277,
      "\u0120met": 1278,
      "erest": 1279,
      "\u0120par": 1280,
      "ense": 1281,
      "ify": 1282,
      "ered": 1283,
      "\u0120ident": 1284,
      "\u0120including": 1285,
      "aterial": 1286,
      "ah": 1287,
      "rue": 1288,
      "ption": 1289,
      "\u0120ide": 1290,
      "\u0120dise": 1291,
      "))": 1292,
      "ury": 1293,
      "ining": 1294,
      "iversity": 1295,
      "\u0120three": 1296,
      "\u0120cell": 1297,
      "iven": 1298,
      "oh": 1299,
      "mon": 1300,
      "\u0120pass": 1301,
      "ination": 1302,
      "\u0120let": 1303,
      "\u0120typ": 1304,
      "('": 1305,
      "py": 1306,
      "ability": 1307,
      "\u0120educ": 1308,
      "\u0120iss": 1309,
      "ider": 1310,
      "line": 1311,
      "angu": 1312,
      "\u0120elect": 1313,
      "ource": 1314,
      "\u0120New": 1315,
      "\u0120Wh": 1316,
      "ash": 1317,
      "\u0120Ad": 1318,
      "ids": 1319,
      "ively": 1320,
      "str": 1321,
      "ateg": 1322,
      "\u0120Ex": 1323,
      "ox": 1324,
      "less": 1325,
      "\u0120don": 1326,
      "ertain": 1327,
      "itive": 1328,
      "\u0120social": 1329,
      "\u0120govern": 1330,
      "||": 1331,
      "ples": 1332,
      "ries": 1333,
      "\u0120impro": 1334,
      "conom": 1335,
      "\u0120char": 1336,
      "ead": 1337,
      "\u0120anal": 1338,
      "\u0120creat": 1339,
      "lish": 1340,
      "\u0120method": 1341,
      "\u0120invol": 1342,
      "\u0120known": 1343,
      "bers": 1344,
      "\u0120real": 1345,
      "aj": 1346,
      "\u0120del": 1347,
      "This": 1348,
      "\u0120conn": 1349,
      "\u0120And": 1350,
      "\u0120ess": 1351,
      "iness": 1352,
      "oun": 1353,
      "por": 1354,
      "\u0120without": 1355,
      "\u0120tem": 1356,
      "\u0120environment": 1357,
      "ccess": 1358,
      "\u0120chang": 1359,
      "\u0120public": 1360,
      "\u0120still": 1361,
      "ner": 1362,
      "\u0120change": 1363,
      "\u0120signific": 1364,
      "\u0120better": 1365,
      "\u0120prom": 1366,
      "\u0120eas": 1367,
      "ouse": 1368,
      "\u0120hand": 1369,
      "tain": 1370,
      "iod": 1371,
      "\u0120another": 1372,
      "view": 1373,
      "lu": 1374,
      "ially": 1375,
      "\u0120material": 1376,
      "ape": 1377,
      "\u0120report": 1378,
      "\u0120place": 1379,
      "\u0120learning": 1380,
      "\u0120pur": 1381,
      "ived": 1382,
      "\u0120opp": 1383,
      "\u0120interest": 1384,
      "\u0120There": 1385,
      "\u0120present": 1386,
      "\u0120dr": 1387,
      "oms": 1388,
      "pos": 1389,
      "ends": 1390,
      "\u0120project": 1391,
      "uro": 1392,
      "St": 1393,
      "\u0120ben": 1394,
      "orn": 1395,
      "\u0120sit": 1396,
      "arent": 1397,
      "\u0120list": 1398,
      "\u0120bre": 1399,
      "over": 1400,
      "\u0120spe": 1401,
      "\u0120belie": 1402,
      "\u0120phys": 1403,
      "rodu": 1404,
      "ior": 1405,
      "\u0120product": 1406,
      "\u0120feel": 1407,
      "\u0120cap": 1408,
      "ration": 1409,
      "\u010a\u010a\u0120\u0120\u0120\u0120\u0120\u0120\u0120": 1410,
      "ills": 1411,
      "oad": 1412,
      "\u0120De": 1413,
      "cing": 1414,
      "ision": 1415,
      "ason": 1416,
      "ental": 1417,
      "li": 1418,
      "bs": 1419,
      "\u0120light": 1420,
      "\u0120development": 1421,
      "\u0120sym": 1422,
      "\u0120However": 1423,
      "\u0120mus": 1424,
      "be": 1425,
      "\u0120imm": 1426,
      "\u0120ele": 1427,
      "\u0120By": 1428,
      "cond": 1429,
      "ological": 1430,
      "\u0120Is": 1431,
      "ething": 1432,
      "ug": 1433,
      "ently": 1434,
      "ording": 1435,
      "ances": 1436,
      "az": 1437,
      "\u0120become": 1438,
      "\u0120energy": 1439,
      "\u0120open": 1440,
      "\u0120mean": 1441,
      "atic": 1442,
      "\u0120few": 1443,
      "hor": 1444,
      "\u0120caus": 1445,
      "\u0120keep": 1446,
      ",\u00e2\u0122\u013f": 1447,
      "ention": 1448,
      "\u0120others": 1449,
      "\u0120best": 1450,
      "\u0120fac": 1451,
      "ways": 1452,
      "\u0120include": 1453,
      "\u0120direct": 1454,
      "from": 1455,
      "\u0120&": 1456,
      "ats": 1457,
      "\u0120vari": 1458,
      "ank": 1459,
      "ium": 1460,
      "\u0120various": 1461,
      "\u0120name": 1462,
      "\u0120history": 1463,
      "\u0120create": 1464,
      "')": 1465,
      "\u0120top": 1466,
      "ery": 1467,
      "']": 1468,
      "outh": 1469,
      "(\"": 1470,
      "\u0120Eng": 1471,
      "oint": 1472,
      "\u0120happ": 1473,
      "\u0120sever": 1474,
      "\u0120leg": 1475,
      "ocus": 1476,
      "\u0120perform": 1477,
      "\u0120home": 1478,
      "\u0120proper": 1479,
      "agn": 1480,
      "\u0120stand": 1481,
      "\u0120et": 1482,
      "man": 1483,
      "ray": 1484,
      "\u0120move": 1485,
      "\u0120among": 1486,
      "arc": 1487,
      "\u0120something": 1488,
      "\u0120mark": 1489,
      "ected": 1490,
      "ton": 1491,
      "\u0120look": 1492,
      "\u0120saf": 1493,
      "\u00e2\u0122\u0135": 1494,
      "\u0120things": 1495,
      "ique": 1496,
      "\u0120chall": 1497,
      "ified": 1498,
      "\u0120meas": 1499,
      "\u0120langu": 1500,
      "\u0120fin": 1501,
      "\u0120type": 1502,
      "atch": 1503,
      "ames": 1504,
      "\u0120Res": 1505,
      "ians": 1506,
      "\u0120large": 1507,
      "ator": 1508,
      "\u0120sl": 1509,
      "\u0120think": 1510,
      "\u0120desc": 1511,
      "\u0120air": 1512,
      "sc": 1513,
      "ogn": 1514,
      "atural": 1515,
      "\u0120bas": 1516,
      "\u0120function": 1517,
      "erc": 1518,
      "ling": 1519,
      "ote": 1520,
      "\u0120Ph": 1521,
      "oring": 1522,
      "\u0120against": 1523,
      "imate": 1524,
      "\u0120law": 1525,
      "ients": 1526,
      "ext": 1527,
      "\u0120group": 1528,
      "\u0120oper": 1529,
      "\u0120means": 1530,
      "here": 1531,
      "\u0120rest": 1532,
      "\u0120control": 1533,
      "\u0120dev": 1534,
      "\u0120here": 1535,
      "ograph": 1536,
      "path": 1537,
      "\u0120provide": 1538,
      "':": 1539,
      "urther": 1540,
      "\u0120Sh": 1541,
      "\u0120particular": 1542,
      "\u0120anim": 1543,
      "\u0120hy": 1544,
      "\u0120several": 1545,
      "\u0120significant": 1546,
      "\u0120American": 1547,
      "ember": 1548,
      "\u0120bus": 1549,
      "\u0120When": 1550,
      "\u0120\u00e2\u0122\u013a": 1551,
      "\u0120based": 1552,
      "arth": 1553,
      "\u0120women": 1554,
      "eral": 1555,
      "\u0120pain": 1556,
      "\u0120area": 1557,
      "me": 1558,
      "//": 1559,
      "sy": 1560,
      "rop": 1561,
      "\u0120tre": 1562,
      "ards": 1563,
      "\u0120family": 1564,
      "ots": 1565,
      "\u0120potential": 1566,
      "iver": 1567,
      "\u0120due": 1568,
      "\u0120object": 1569,
      "\u0120enc": 1570,
      "err": 1571,
      "resent": 1572,
      "\u0120old": 1573,
      "\u0120current": 1574,
      "\u0120mult": 1575,
      "\u0120try": 1576,
      "\u0120:": 1577,
      "\u0120program": 1578,
      "ortun": 1579,
      "\u0120ens": 1580,
      "aper": 1581,
      "\u0120econom": 1582,
      "\u0120beg": 1583,
      "\u0120early": 1584,
      "\u00e2\u0122\u013e": 1585,
      "\u0120fil": 1586,
      "\u0120lab": 1587,
      "\u0120cal": 1588,
      "It": 1589,
      "\u0120ve": 1590,
      "\u0120toget": 1591,
      "\u0120together": 1592,
      "\u0120focus": 1593,
      "\u0120access": 1594,
      "sh": 1595,
      "\u0120last": 1596,
      "\u0120unt": 1597,
      "\u0120ant": 1598,
      "\u0120es": 1599,
      "\u0120benef": 1600,
      "['": 1601,
      "uture": 1602,
      "\u0120non": 1603,
      "def": 1604,
      "lished": 1605,
      "\u0120Q": 1606,
      "\u0120turn": 1607,
      "ission": 1608,
      "\u0120lim": 1609,
      "\u0120struct": 1610,
      "\u0120disease": 1611,
      "br": 1612,
      "amp": 1613,
      "set": 1614,
      "ditions": 1615,
      "\u0120orig": 1616,
      "ploy": 1617,
      "ajor": 1618,
      "\u0120fre": 1619,
      "\u0120\"\"\"": 1620,
      "\u0120risk": 1621,
      "\u0120soci": 1622,
      "\u0120fore": 1623,
      "\u0120success": 1624,
      "\u0120making": 1625,
      "\u0120To": 1626,
      ",\"": 1627,
      "\u0120print": 1628,
      "ication": 1629,
      "\u0120opt": 1630,
      "\u0120avail": 1631,
      "\u0120bi": 1632,
      "oid": 1633,
      "\u0120crit": 1634,
      "orth": 1635,
      "\u0120possible": 1636,
      "work": 1637,
      "\u0120University": 1638,
      "gen": 1639,
      "rist": 1640,
      "ression": 1641,
      "\u0120low": 1642,
      "\u0120say": 1643,
      "\u0120So": 1644,
      "\u0120impact": 1645,
      "\u0120key": 1646,
      "\u0120certain": 1647,
      "aut": 1648,
      "ribut": 1649,
      "\u0120cr": 1650,
      "sel": 1651,
      "\u0120Pl": 1652,
      "As": 1653,
      "\u0120bo": 1654,
      "\u0120mil": 1655,
      "\u0109\u0109": 1656,
      "\u0120period": 1657,
      "\u0120run": 1658,
      "min": 1659,
      "\u0120scient": 1660,
      "\u0120Cl": 1661,
      "\u0120{": 1662,
      "\u0120mill": 1663,
      "agement": 1664,
      "\u0120gr": 1665,
      "\u0120land": 1666,
      "idence": 1667,
      "cle": 1668,
      "\u0120fri": 1669,
      "\u0120blood": 1670,
      "\u0120case": 1671,
      "\u0120*": 1672,
      "\u0120.": 1673,
      "ane": 1674,
      "\u0120since": 1675,
      "hem": 1676,
      "ides": 1677,
      "\u0120specific": 1678,
      "\u0120local": 1679,
      "\u0120head": 1680,
      "\u0120post": 1681,
      "ann": 1682,
      "\u0120along": 1683,
      "clus": 1684,
      "\u0120value": 1685,
      "\u0120order": 1686,
      "ems": 1687,
      "----------------": 1688,
      "\u0120occur": 1689,
      "\u0120come": 1690,
      "\u0120Sp": 1691,
      "\u0120discuss": 1692,
      "\u0120government": 1693,
      "\u0120text": 1694,
      "\u0120following": 1695,
      "olution": 1696,
      "ww": 1697,
      "\u0120En": 1698,
      "\u0120across": 1699,
      "\u0120conc": 1700,
      "\u0120why": 1701,
      "pre": 1702,
      "\u0120\u0120\u0120\u0120\u0120\u0120\u0120\u0120\u0120\u0120\u0120\u0120\u0120\u0120\u0120\u0120": 1703,
      "cer": 1704,
      "icle": 1705,
      "\u0120addition": 1706,
      "ledge": 1707,
      "\u0120cost": 1708,
      "raw": 1709,
      "for": 1710,
      "\u0120times": 1711,
      "\u0120Col": 1712,
      "mit": 1713,
      "of": 1714,
      "\")": 1715,
      "ilar": 1716,
      "by": 1717,
      "ised": 1718,
      "ending": 1719,
      "\u0120comput": 1720,
      "\u0120areas": 1721,
      "\u0120profess": 1722,
      "\u0120hig": 1723,
      "hy": 1724,
      "\u0120understanding": 1725,
      "use": 1726,
      "alk": 1727,
      "\u0120cause": 1728,
      "\u0120lik": 1729,
      "\u0120able": 1730,
      "\u0120toward": 1731,
      "\u0120problem": 1732,
      "\u0120ter": 1733,
      "\u0120systems": 1734,
      "\u0120bro": 1735,
      "\u0120associ": 1736,
      "\u0120view": 1737,
      "aster": 1738,
      "\u0120major": 1739,
      "\u0120course": 1740,
      "ument": 1741,
      "://": 1742,
      "\u0120model": 1743,
      "yn": 1744,
      "\u0120else": 1745,
      "\u0120prevent": 1746,
      "ole": 1747,
      "\u0120invest": 1748,
      "\u0120Im": 1749,
      "],": 1750,
      "ilities": 1751,
      "\u0120arg": 1752,
      "ended": 1753,
      "ER": 1754,
      "\u0120intern": 1755,
      "ably": 1756,
      "\u0120press": 1757,
      "\u0120==": 1758,
      "\u0120hard": 1759,
      "idd": 1760,
      "\u0120line": 1761,
      "ights": 1762,
      "\u0120tool": 1763,
      "ooks": 1764,
      "\u0120relations": 1765,
      "not": 1766,
      "\u0120special": 1767,
      "ones": 1768,
      "osed": 1769,
      "\u0120available": 1770,
      "\u0120consider": 1771,
      "\u0120species": 1772,
      "\u0120community": 1773,
      "\u0120future": 1774,
      "\u0120comb": 1775,
      "\u0120behav": 1776,
      "\u0120Z": 1777,
      "ggest": 1778,
      "\u0120applic": 1779,
      "What": 1780,
      "sw": 1781,
      "\u0120natural": 1782,
      "\u0120plant": 1783,
      "\u0120complex": 1784,
      "ams": 1785,
      "\u0120experience": 1786,
      "ina": 1787,
      "cul": 1788,
      "\u0120language": 1789,
      "though": 1790,
      "\u0120role": 1791,
      "\u0120x": 1792,
      "\u0120until": 1793,
      "\u0120rele": 1794,
      "\u0120respons": 1795,
      "\u0120second": 1796,
      "\u0120United": 1797,
      "\u0120country": 1798,
      "\":": 1799,
      "\u0120men": 1800,
      "\u0120polit": 1801,
      "iting": 1802,
      "face": 1803,
      "\u0120rece": 1804,
      "\u0120young": 1805,
      "\u0120works": 1806,
      "aring": 1807,
      "rag": 1808,
      "acy": 1809,
      "aps": 1810,
      "\u0120always": 1811,
      "\u0120What": 1812,
      "aces": 1813,
      "\u0120At": 1814,
      "obal": 1815,
      "\u0120Or": 1816,
      "asing": 1817,
      "ask": 1818,
      "ope": 1819,
      "\u0120suggest": 1820,
      "osp": 1821,
      "\u0120exist": 1822,
      "urope": 1823,
      "data": 1824,
      "\u0120levels": 1825,
      "\u0120indust": 1826,
      "icult": 1827,
      "\u0120problems": 1828,
      "izing": 1829,
      "\u0120put": 1830,
      "\u0120mar": 1831,
      "ained": 1832,
      "\u0120step": 1833,
      "\u0120today": 1834,
      "\u0120technology": 1835,
      "\u0120given": 1836,
      "\u0120strong": 1837,
      "\u0120little": 1838,
      "\u0120God": 1839,
      "\u0120sw": 1840,
      "\u0120\u00e2\u0122\u0136": 1841,
      "\u0120cir": 1842,
      "\u0120character": 1843,
      "\u0120results": 1844,
      "\u0120range": 1845,
      "ek": 1846,
      "istic": 1847,
      "\u0120That": 1848,
      "\u0120treatment": 1849,
      "\u0120age": 1850,
      "ored": 1851,
      "reen": 1852,
      "\u0120ways": 1853,
      "ysis": 1854,
      "cur": 1855,
      "ths": 1856,
      "ators": 1857,
      "\u0120necess": 1858,
      "\u0120obs": 1859,
      "\u0120vol": 1860,
      "\u0120business": 1861,
      "lement": 1862,
      "\u0120book": 1863,
      "omm": 1864,
      "selves": 1865,
      "ont": 1866,
      "\u0120next": 1867,
      "ivity": 1868,
      "\u0120far": 1869,
      "\u0120percent": 1870,
      "\u0120larg": 1871,
      "\u0120determ": 1872,
      "ik": 1873,
      "\u0120flow": 1874,
      "orts": 1875,
      "\u0120four": 1876,
      "\u0120dem": 1877,
      "ither": 1878,
      "\u0120influ": 1879,
      "\u0120represent": 1880,
      "co": 1881,
      "We": 1882,
      "aging": 1883,
      "thing": 1884,
      "\u0120$": 1885,
      "orld": 1886,
      "\u0120similar": 1887,
      "\u0120education": 1888,
      "apt": 1889,
      "\u0120short": 1890,
      "\u0120working": 1891,
      "\u0120z": 1892,
      "ables": 1893,
      "\u0120challeng": 1894,
      "\u0120essential": 1895,
      "\u0120past": 1896,
      "\u0120Af": 1897,
      "\u0120space": 1898,
      "\u0120ill": 1899,
      "\u0120sing": 1900,
      "lab": 1901,
      "\u0120amount": 1902,
      "\u0120**": 1903,
      "\u0120free": 1904,
      "ym": 1905,
      "etimes": 1906,
      "atures": 1907,
      "side": 1908,
      "\u0120concept": 1909,
      "\u0120Europe": 1910,
      "\u0120heart": 1911,
      "atory": 1912,
      "\u0120war": 1913,
      "\u0120vir": 1914,
      "ured": 1915,
      "\u0120later": 1916,
      "\u0120bir": 1917,
      "\u0120States": 1918,
      "\u0120author": 1919,
      "\u0120conditions": 1920,
      "\u0120says": 1921,
      "duct": 1922,
      "\u0120needs": 1923,
      "\u0120words": 1924,
      "\u0120net": 1925,
      "\u0120Christ": 1926,
      "\u010a\u0120\u0120\u0120\u0120\u0120\u0120\u0120\u0120\u0120\u0120\u0120\u0120\u0120\u0120\u0120\u0120\u0120\u0120\u0120": 1927,
      "\u0120give": 1928,
      "\u0120With": 1929,
      "\u0120init": 1930,
      "\u0120Te": 1931,
      "eter": 1932,
      "NA": 1933,
      "\u0120Be": 1934,
      "une": 1935,
      "icro": 1936,
      "If": 1937,
      "\u0120mov": 1938,
      "af": 1939,
      "onse": 1940,
      "\u0120paper": 1941,
      "\u0120kind": 1942,
      "\u0120None": 1943,
      "vious": 1944,
      "\u0120mind": 1945,
      "ires": 1946,
      "\u0120improve": 1947,
      "\u0120polic": 1948,
      "\u0120ey": 1949,
      "inc": 1950,
      "ule": 1951,
      "\u0120resources": 1952,
      "\u0120having": 1953,
      "\u0120skills": 1954,
      "\u0120field": 1955,
      "\u0120begin": 1956,
      "\u0120consum": 1957,
      "\u0120parent": 1958,
      "\u0120expect": 1959,
      "\u0120cells": 1960,
      "\u0120rad": 1961,
      "\u0120question": 1962,
      "\u0120One": 1963,
      "\u0120teac": 1964,
      "\u0120pred": 1965,
      "\u0120tradition": 1966,
      "\u0120knowledge": 1967,
      "ibility": 1968,
      "``": 1969,
      "ours": 1970,
      "\u0120changes": 1971,
      "\u0120appear": 1972,
      "\u0120jour": 1973,
      "\u0120issues": 1974,
      "\u0120estab": 1975,
      "lection": 1976,
      "\u0120story": 1977,
      "\u0120Can": 1978,
      "ili": 1979,
      "\u0120upon": 1980,
      "\u0120mot": 1981,
      "\u0120concern": 1982,
      "pecially": 1983,
      "\u0120require": 1984,
      "\u0120On": 1985,
      "\u0120relationship": 1986,
      "\u0120strateg": 1987,
      "arget": 1988,
      "etic": 1989,
      "\u0120difficult": 1990,
      "\u0120whether": 1991,
      "ee": 1992,
      "\u0120log": 1993,
      "ening": 1994,
      "\u0120types": 1995,
      "\u0120prim": 1996,
      "\u0120sens": 1997,
      "\u0120ask": 1998,
      "ush": 1999,
      "\u0120temper": 2000,
      "\u0120enough": 2001,
      "ales": 2002,
      "\u0120likely": 2003,
      "\u0120record": 2004,
      "iple": 2005,
      "\u0120Inst": 2006,
      "\u0120usually": 2007,
      "ger": 2008,
      "\u0120days": 2009,
      "nal": 2010,
      "inking": 2011,
      "\u0120histor": 2012,
      "apter": 2013,
      "\u0120address": 2014,
      "\u0120Some": 2015,
      "let": 2016,
      "import": 2017,
      "\u0120All": 2018,
      "aching": 2019,
      "How": 2020,
      "chie": 2021,
      "\u0120makes": 2022,
      "\u0120opportun": 2023,
      "\u0120Cent": 2024,
      "\u0120away": 2025,
      "...": 2026,
      "\u0120norm": 2027,
      "\u0120sum": 2028,
      "\u0120questions": 2029,
      "\u0120further": 2030,
      "====": 2031,
      "iction": 2032,
      "\u0120researc": 2033,
      "son": 2034,
      "ruction": 2035,
      "oney": 2036,
      "\u0120protect": 2037,
      "\u0120US": 2038,
      "ising": 2039,
      "omes": 2040,
      "ried": 2041,
      "\u0120ever": 2042,
      "cient": 2043,
      "ware": 2044,
      "\u0120going": 2045,
      "ffic": 2046,
      "\u0120dig": 2047,
      "\u0120individuals": 2048,
      "\u0120left": 2049,
      "\u0120path": 2050,
      "\u0120account": 2051,
      "aken": 2052,
      "oot": 2053,
      "ibr": 2054,
      "ued": 2055,
      "\u0120i": 2056,
      "\u0120employ": 2057,
      "type": 2058,
      "ification": 2059,
      "\u0120lay": 2060,
      "\u0120higher": 2061,
      "AT": 2062,
      "\u0120growth": 2063,
      "class": 2064,
      "\u0120ur": 2065,
      "\u0120big": 2066,
      "\u0120<": 2067,
      "To": 2068,
      "='": 2069,
      "\u0120century": 2070,
      "\u0120National": 2071,
      "\u0120collect": 2072,
      "\u0120full": 2073,
      "ney": 2074,
      "\u0120countries": 2075,
      "\u0120super": 2076,
      "._": 2077,
      "amm": 2078,
      "\u0120Afric": 2079,
      "aves": 2080,
      "\u0120increase": 2081,
      "\u0120situ": 2082,
      "Ch": 2083,
      "\u0120connect": 2084,
      "rans": 2085,
      "plic": 2086,
      "\u0120fund": 2087,
      "ooking": 2088,
      "An": 2089,
      "\u0120sure": 2090,
      "\u0120stat": 2091,
      "\u0120science": 2092,
      "\u0120never": 2093,
      "\u0120recogn": 2094,
      "erence": 2095,
      "\u0120describ": 2096,
      "ES": 2097,
      "\u0120exc": 2098,
      "\u0120physical": 2099,
      "\u0120cy": 2100,
      "\u0120Med": 2101,
      "ohn": 2102,
      "\u0120side": 2103,
      "add": 2104,
      "reg": 2105,
      "\u0120brain": 2106,
      "\u0120however": 2107,
      "arl": 2108,
      "\u0120plants": 2109,
      "arr": 2110,
      "verse": 2111,
      "\u0120death": 2112,
      "IN": 2113,
      "\u0120Bl": 2114,
      "\u0120term": 2115,
      "\u0120unique": 2116,
      "\u0120especially": 2117,
      "\u0120ground": 2118,
      "\u0120groups": 2119,
      "\u0120above": 2120,
      "\u0120event": 2121,
      "There": 2122,
      "\u0120activities": 2123,
      "\u0120least": 2124,
      "\u0120maintain": 2125,
      "\u0120throughout": 2126,
      "\u0120contain": 2127,
      "########": 2128,
      "test": 2129,
      "most": 2130,
      "ault": 2131,
      "elling": 2132,
      "\u0120Fr": 2133,
      "\u0120particip": 2134,
      "agine": 2135,
      "\u0120emb": 2136,
      "ilt": 2137,
      "\u0120subject": 2138,
      "\u0120sound": 2139,
      "alse": 2140,
      "\u0120near": 2141,
      "\u0120achie": 2142,
      "\u0120personal": 2143,
      "edi": 2144,
      "sych": 2145,
      "utions": 2146,
      "\u0120Sc": 2147,
      "\u0120modern": 2148,
      "ready": 2149,
      "lying": 2150,
      "\u0120affect": 2151,
      "sequ": 2152,
      "file": 2153,
      "ON": 2154,
      "\u0120population": 2155,
      "\u0120dam": 2156,
      "\u0120studies": 2157,
      "\u0120neg": 2158,
      "\u0120really": 2159,
      "fact": 2160,
      "\u0120rather": 2161,
      "ptoms": 2162,
      "\u0120became": 2163,
      "ison": 2164,
      "\u0120effects": 2165,
      "\u0120reason": 2166,
      "rug": 2167,
      "rect": 2168,
      "ils": 2169,
      "aim": 2170,
      "ites": 2171,
      "mod": 2172,
      "\u0120cancer": 2173,
      "\u0120quality": 2174,
      "\u0120relig": 2175,
      "\u0120liter": 2176,
      "\u0120nature": 2177,
      "asc": 2178,
      "\u0120`": 2179,
      "\u0120practice": 2180,
      "rel": 2181,
      "illed": 2182,
      "\u0120chem": 2183,
      "\u0120loss": 2184,
      "atives": 2185,
      "nces": 2186,
      "\u0120Brit": 2187,
      "\u0120associated": 2188,
      "unt": 2189,
      "ises": 2190,
      "\u0120pattern": 2191,
      "att": 2192,
      "For": 2193,
      "\u0120building": 2194,
      "issue": 2195,
      "\u0120answ": 2196,
      "roll": 2197,
      "\u0120stre": 2198,
      "\u0120cases": 2199,
      "\u0120patients": 2200,
      "ample": 2201,
      "\u0120detail": 2202,
      "\u0120size": 2203,
      "\u0120cho": 2204,
      "\u0120hold": 2205,
      "\u0120someone": 2206,
      "\u0120vers": 2207,
      "\u0120lower": 2208,
      "alf": 2209,
      "\u0120general": 2210,
      "AS": 2211,
      "\u0120factors": 2212,
      "overed": 2213,
      "enn": 2214,
      "\u0120million": 2215,
      "\u0120comes": 2216,
      "\u0120explore": 2217,
      "opy": 2218,
      "Al": 2219,
      "\u0120meet": 2220,
      "\u0120already": 2221,
      "\u0120student": 2222,
      "eds": 2223,
      "\u0120global": 2224,
      "rams": 2225,
      "\u0120doc": 2226,
      "\".": 2227,
      "oman": 2228,
      "\u0120word": 2229,
      "ene": 2230,
      "ok": 2231,
      "\u0120simple": 2232,
      "inary": 2233,
      "\u0120regard": 2234,
      "ript": 2235,
      "\u0120nut": 2236,
      "mb": 2237,
      "ID": 2238,
      "\u0120introdu": 2239,
      "\u0120city": 2240,
      "new": 2241,
      "\u0120living": 2242,
      "augh": 2243,
      "\u0120single": 2244,
      "\u0120prob": 2245,
      "iques": 2246,
      "\u0120indic": 2247,
      "\u0120abs": 2248,
      "\u0120members": 2249,
      "\u0120Le": 2250,
      "\u0120wind": 2251,
      "verage": 2252,
      "\u0120themselves": 2253,
      "\u0120materials": 2254,
      "])": 2255,
      "time": 2256,
      "\u0120source": 2257,
      "\u0120towards": 2258,
      "ips": 2259,
      "\u0120World": 2260,
      "\u0120phot": 2261,
      "\u0120production": 2262,
      "\u0120observ": 2263,
      "ival": 2264,
      "\u0120respect": 2265,
      "\u0120dom": 2266,
      "\u0120either": 2267,
      "\u0120once": 2268,
      "\u0120seen": 2269,
      "rad": 2270,
      "\u0120deg": 2271,
      "\u0120/": 2272,
      "\u0120X": 2273,
      "anced": 2274,
      "\u0120thought": 2275,
      "\u0120deep": 2276,
      "ring": 2277,
      "\u0120Germ": 2278,
      "ott": 2279,
      "ung": 2280,
      "leep": 2281,
      "\u0120ut": 2282,
      "col": 2283,
      "inter": 2284,
      "AR": 2285,
      "iol": 2286,
      "\u0120War": 2287,
      "\u0120job": 2288,
      "\u0120according": 2289,
      "\u0120pay": 2290,
      "\u0120house": 2291,
      "ley": 2292,
      "\u0120researchers": 2293,
      "\u0120done": 2294,
      "org": 2295,
      "ae": 2296,
      "\u0120emot": 2297,
      "\u0120interact": 2298,
      "\u0120team": 2299,
      "hern": 2300,
      "\u0120file": 2301,
      "ened": 2302,
      "\u0120ver": 2303,
      "\u0120cut": 2304,
      "rict": 2305,
      "\u0120She": 2306,
      "ird": 2307,
      "enc": 2308,
      "\u0120required": 2309,
      "ules": 2310,
      "\u0120helps": 2311,
      "\u0120created": 2312,
      "\u0120activity": 2313,
      "adem": 2314,
      "earch": 2315,
      "'re": 2316,
      "ipp": 2317,
      "\u0120analysis": 2318,
      "\u0120fail": 2319,
      "\u0120products": 2320,
      "\u0120English": 2321,
      "\u0120John": 2322,
      "epend": 2323,
      "\u0120Comm": 2324,
      "\u0120aspect": 2325,
      "hold": 2326,
      "\u0120engine": 2327,
      "\u0120integ": 2328,
      "\u0120online": 2329,
      "\u0120live": 2330,
      "itud": 2331,
      "\u0120fall": 2332,
      "\u0120np": 2333,
      "my": 2334,
      "\u0120fig": 2335,
      "\u0120symptoms": 2336,
      "\u0120methods": 2337,
      "fully": 2338,
      "\u0120frequ": 2339,
      "\u0120medical": 2340,
      "\u0120lot": 2341,
      "\u0120market": 2342,
      "\u0120management": 2343,
      "fer": 2344,
      "go": 2345,
      "otes": 2346,
      "ler": 2347,
      "\u0120tot": 2348,
      "\u0120effic": 2349,
      "\u0120needed": 2350,
      "\u0120Go": 2351,
      "oose": 2352,
      "\u0120action": 2353,
      "fl": 2354,
      "\u0120animals": 2355,
      "\u0120political": 2356,
      "\u0120pie": 2357,
      "\u0120circ": 2358,
      "\u0120idea": 2359,
      "ivil": 2360,
      "place": 2361,
      "\u0120sent": 2362,
      "rand": 2363,
      "\u0120evidence": 2364,
      "\u0120quick": 2365,
      "\u0120flu": 2366,
      "\u010a\u0120\u0120\u0120\u0120": 2367,
      "\u0120Stud": 2368,
      "\u0120reduce": 2369,
      "\u0120target": 2370,
      "\u0120necessary": 2371,
      "aries": 2372,
      "\u0120break": 2373,
      "\u0120society": 2374,
      "\u0120soft": 2375,
      "\u0120surface": 2376,
      "\u0120recomm": 2377,
      "\u0120popular": 2378,
      "\u0120Health": 2379,
      "\u0120color": 2380,
      "\u0120ensure": 2381,
      "\u0120red": 2382,
      "\u0120Pr": 2383,
      "way": 2384,
      "\u0120writing": 2385,
      "load": 2386,
      "\u0120rights": 2387,
      "\u0120sun": 2388,
      "\u0120mass": 2389,
      "\u0120actually": 2390,
      "\u0120parts": 2391,
      "lt": 2392,
      "key": 2393,
      "\u0120mess": 2394,
      "\u0120seem": 2395,
      "\u0120values": 2396,
      "\u0120lives": 2397,
      "clusion": 2398,
      "\u0120port": 2399,
      "oph": 2400,
      "sp": 2401,
      "list": 2402,
      "bon": 2403,
      "ze": 2404,
      "\u0120May": 2405,
      "\u0120sometimes": 2406,
      "yle": 2407,
      "\u0120yet": 2408,
      "\u0120offic": 2409,
      "chan": 2410,
      "reng": 2411,
      "\u0120climate": 2412,
      "ulations": 2413,
      "cial": 2414,
      "\u0120entire": 2415,
      "aling": 2416,
      "\u0120ge": 2417,
      "\u0120arr": 2418,
      "\u0120share": 2419,
      "\u0120increased": 2420,
      "\u0120rate": 2421,
      "\u0120came": 2422,
      "ystem": 2423,
      "\u0120approach": 2424,
      "oration": 2425,
      "\u0120response": 2426,
      "When": 2427,
      "\u0120friends": 2428,
      "\u0120communities": 2429,
      "\u0120effective": 2430,
      "\u0120sal": 2431,
      "ma": 2432,
      "\u0120provides": 2433,
      "\u0120dest": 2434,
      "\u0120stress": 2435,
      "\u0120encou": 2436,
      "\u0120clear": 2437,
      "\u0120Am": 2438,
      "\u0120Ass": 2439,
      "ustom": 2440,
      "\u0120below": 2441,
      "erous": 2442,
      "\u0120image": 2443,
      "\u0120whole": 2444,
      "\u0120While": 2445,
      "\u0120doct": 2446,
      "\u0120Gen": 2447,
      "\u0120national": 2448,
      "\u0120subst": 2449,
      "aged": 2450,
      "ublic": 2451,
      "\u0120developed": 2452,
      "ply": 2453,
      "olic": 2454,
      "\u0120meaning": 2455,
      "\u0120pressure": 2456,
      "\u0120arch": 2457,
      "\u0120healthy": 2458,
      "erve": 2459,
      "OR": 2460,
      "ender": 2461,
      "\u0120exerc": 2462,
      "idered": 2463,
      "II": 2464,
      "\u0120services": 2465,
      "\u0120events": 2466,
      "urch": 2467,
      "\u0120context": 2468,
      "osis": 2469,
      "\u0120ability": 2470,
      "\u0120%": 2471,
      "acks": 2472,
      "\u0120taken": 2473,
      "\u0120increasing": 2474,
      "\u0120continue": 2475,
      "ches": 2476,
      "\u0120music": 2477,
      "\u0120money": 2478,
      "ores": 2479,
      "lex": 2480,
      "\u0120)": 2481,
      "\u0120avoid": 2482,
      "\u0120_": 2483,
      "\u0120related": 2484,
      "\u0120Ab": 2485,
      "ttp": 2486,
      "acc": 2487,
      "\u0120compon": 2488,
      "\u0120instead": 2489,
      "\u0120adult": 2490,
      "nov": 2491,
      "\u0120emerg": 2492,
      "\u0120America": 2493,
      "atter": 2494,
      "istance": 2495,
      "\u0120states": 2496,
      "eration": 2497,
      "\u0120taking": 2498,
      "wh": 2499,
      "\u0120considered": 2500,
      "light": 2501,
      "ctions": 2502,
      "\u0120Dr": 2503,
      "\u0120|": 2504,
      "\u0120tell": 2505,
      "\u0120Man": 2506,
      "\u0120Int": 2507,
      "ront": 2508,
      "oon": 2509,
      "\u0120Intern": 2510,
      "itation": 2511,
      "ength": 2512,
      "\u0120Ge": 2513,
      "\u0120micro": 2514,
      "imately": 2515,
      "Ex": 2516,
      "\u0120culture": 2517,
      "\u0120allows": 2518,
      "ges": 2519,
      "amed": 2520,
      "\u0120ann": 2521,
      "ume": 2522,
      "\u0120review": 2523,
      "\u0120article": 2524,
      "\u0120mach": 2525,
      "\u0120cannot": 2526,
      "\u0120thera": 2527,
      "\u0120Sci": 2528,
      "\u0120challenges": 2529,
      "\u0120site": 2530,
      "\u0120five": 2531,
      "\u0120priv": 2532,
      "play": 2533,
      "\u0120training": 2534,
      "hing": 2535,
      "\u0120economic": 2536,
      "\u0120white": 2537,
      "ump": 2538,
      "\u0120reading": 2539,
      "\u0120Cal": 2540,
      "part": 2541,
      "based": 2542,
      "\u0120bal": 2543,
      "\u0120techniques": 2544,
      "\u0120check": 2545,
      "\u0120environmental": 2546,
      "\u0120drug": 2547,
      "\u0120position": 2548,
      "\u0120tools": 2549,
      "\u0120After": 2550,
      "irm": 2551,
      "\u0120mor": 2552,
      "\u0120Em": 2553,
      "ai": 2554,
      "\u0120behavior": 2555,
      "\u0120traditional": 2556,
      "Con": 2557,
      "\u0120Cont": 2558,
      "order": 2559,
      "\u0120except": 2560,
      "\u0120harm": 2561,
      "utes": 2562,
      "init": 2563,
      "ribute": 2564,
      "\u0120clos": 2565,
      "ari": 2566,
      "\u0120doing": 2567,
      "aced": 2568,
      "hib": 2569,
      "\u0120assess": 2570,
      "het": 2571,
      "iment": 2572,
      "\u0120everyone": 2573,
      "\u0120skin": 2574,
      "iddle": 2575,
      "amin": 2576,
      "\u0120clean": 2577,
      "come": 2578,
      "like": 2579,
      "\u0120compet": 2580,
      "\u0120itself": 2581,
      "\u0120South": 2582,
      "\u0120computer": 2583,
      "aving": 2584,
      "\u0120began": 2585,
      "oes": 2586,
      "\u0120published": 2587,
      "\u0120sense": 2588,
      "eed": 2589,
      "\u0120App": 2590,
      "\u0120Earth": 2591,
      "\u0120streng": 2592,
      "uck": 2593,
      "pose": 2594,
      "\u0120react": 2595,
      "But": 2596,
      "aches": 2597,
      "ey": 2598,
      "esc": 2599,
      "ops": 2600,
      "\u0120North": 2601,
      "pri": 2602,
      "pid": 2603,
      "mber": 2604,
      "\u0120week": 2605,
      "\u0120love": 2606,
      "astic": 2607,
      "itor": 2608,
      "\u0120critical": 2609,
      "iet": 2610,
      "ype": 2611,
      "\u0120remain": 2612,
      "\u0120weight": 2613,
      "\u0120demon": 2614,
      "fig": 2615,
      "ground": 2616,
      "know": 2617,
      "\u0120la": 2618,
      "\u0120condition": 2619,
      "dom": 2620,
      "\u0120measure": 2621,
      "\u0120Hist": 2622,
      "empt": 2623,
      "\u0120benefits": 2624,
      "ele": 2625,
      "\u0120offer": 2626,
      "\u0120content": 2627,
      "aily": 2628,
      "\u0120true": 2629,
      "\u0120accept": 2630,
      "\u0120matter": 2631,
      "\u0120black": 2632,
      "\u0120separ": 2633,
      "\u0120draw": 2634,
      "\u0120bring": 2635,
      "\u0120rev": 2636,
      "\u0120took": 2637,
      "\u0120medic": 2638,
      "isc": 2639,
      "\u0120prote": 2640,
      "joy": 2641,
      "\u0120cultural": 2642,
      "\u0120sat": 2643,
      "\u0120cat": 2644,
      "\u0120feed": 2645,
      "\u0120Act": 2646,
      "\u0120experiences": 2647,
      "\u0120instance": 2648,
      "\u0120regular": 2649,
      "\u0120Aust": 2650,
      "cont": 2651,
      "\u0120parents": 2652,
      "\u0120cru": 2653,
      "\u0120green": 2654,
      "\u0120hab": 2655,
      "\u0120terms": 2656,
      "itary": 2657,
      "bl": 2658,
      "istics": 2659,
      "pite": 2660,
      "args": 2661,
      "\u0120conduct": 2662,
      "raft": 2663,
      "\u0120oil": 2664,
      "\u0120sust": 2665,
      "\u0120implement": 2666,
      "\u0120express": 2667,
      "yl": 2668,
      "\u0120identify": 2669,
      "\u0120capt": 2670,
      "=\"": 2671,
      "\u0120previous": 2672,
      "ields": 2673,
      "\u0120attention": 2674,
      "avor": 2675,
      "back": 2676,
      ".)": 2677,
      "\u0120structure": 2678,
      "vere": 2679,
      "EN": 2680,
      "icles": 2681,
      "equ": 2682,
      "You": 2683,
      "\u0120stories": 2684,
      "oll": 2685,
      "\u0120etc": 2686,
      "itution": 2687,
      "\u0120dat": 2688,
      "orks": 2689,
      "\u0120produce": 2690,
      "inf": 2691,
      "text": 2692,
      "\u0120Gu": 2693,
      "hood": 2694,
      "\u0120region": 2695,
      "Now": 2696,
      "rown": 2697,
      "\u0120fish": 2698,
      "head": 2699,
      "\u0120demonstr": 2700,
      "\u0120multiple": 2701,
      "\u0120select": 2702,
      "Wh": 2703,
      "\u0120months": 2704,
      "One": 2705,
      "ift": 2706,
      "ging": 2707,
      "artment": 2708,
      "ername": 2709,
      "\u0120sex": 2710,
      "\u0120provided": 2711,
      "ister": 2712,
      "eb": 2713,
      "\u0120diet": 2714,
      "\u0120face": 2715,
      "alu": 2716,
      "\u0120forms": 2717,
      "\u0120practices": 2718,
      "\u0120total": 2719,
      "\u0120Rep": 2720,
      "IS": 2721,
      "\u0120minim": 2722,
      "\u0120unit": 2723,
      "\u0120designed": 2724,
      "\u0120suff": 2725,
      "uel": 2726,
      "\u0120company": 2727,
      "\u0120elements": 2728,
      "\u0120industry": 2729,
      "isions": 2730,
      "\u0120positive": 2731,
      "ror": 2732,
      "\u0120creating": 2733,
      "\u0120consist": 2734,
      "ided": 2735,
      "\u0120His": 2736,
      "\u0120hours": 2737,
      "\u010d\u010a": 2738,
      "\u0120vide": 2739,
      "bo": 2740,
      "\u0120reflect": 2741,
      "error": 2742,
      "\u0120almost": 2743,
      "\u0120shows": 2744,
      "\u0120half": 2745,
      "\u0120Su": 2746,
      "\u0120yourself": 2747,
      "\u0120aim": 2748,
      "\u0120psych": 2749,
      "ows": 2750,
      "\u0120heav": 2751,
      "ober": 2752,
      "\u0120bar": 2753,
      "\u0120service": 2754,
      "\u0120particularly": 2755,
      "\u00c3\u00a9": 2756,
      "ensive": 2757,
      "\u0120__": 2758,
      "date": 2759,
      "\u0120fat": 2760,
      "\u0120doesn": 2761,
      "\u0120analy": 2762,
      "\u0120soil": 2763,
      "\u0120schools": 2764,
      "\u0120recent": 2765,
      "\u0120claim": 2766,
      "\u0120dog": 2767,
      "umn": 2768,
      "\u0120farm": 2769,
      "\u0120contact": 2770,
      "right": 2771,
      "\u0120eth": 2772,
      "\u0120involved": 2773,
      "\u0120programs": 2774,
      "\u0120thing": 2775,
      "ners": 2776,
      "Im": 2777,
      "\u0120contribut": 2778,
      "\u0120temperature": 2779,
      "ike": 2780,
      "elt": 2781,
      "\u0120mechan": 2782,
      "\u0120More": 2783,
      "irit": 2784,
      "\u0120sources": 2785,
      "urs": 2786,
      "True": 2787,
      "\u0120simply": 2788,
      "\u0120Your": 2789,
      "[\"": 2790,
      "itle": 2791,
      "thon": 2792,
      "\u0120commit": 2793,
      "rast": 2794,
      "\u0120link": 2795,
      "ese": 2796,
      "hel": 2797,
      "\u0120original": 2798,
      "arily": 2799,
      "\u0120close": 2800,
      "\u0120sleep": 2801,
      "\u0120deb": 2802,
      "ming": 2803,
      "aff": 2804,
      "ccording": 2805,
      "rim": 2806,
      "\u0120easy": 2807,
      "fil": 2808,
      "iation": 2809,
      "AN": 2810,
      "\u0120gas": 2811,
      "\u0120er": 2812,
      "ster": 2813,
      "\u0120extra": 2814,
      "\u0120enjoy": 2815,
      "ties": 2816,
      "\u0120heat": 2817,
      "\u0120ste": 2818,
      "\u0120chemical": 2819,
      "\u0120Pe": 2820,
      "\u0120ideas": 2821,
      "\u0120max": 2822,
      "ched": 2823,
      "\u0120spread": 2824,
      "rage": 2825,
      "\u0120enh": 2826,
      "\u0120travel": 2827,
      "\u0120Mar": 2828,
      "\u00e2\u0122\u00a6": 2829,
      "\u010d\u010a\u0120\u0120\u0120\u0120\u0120\u0120\u0120": 2830,
      "ription": 2831,
      "rem": 2832,
      "rs": 2833,
      "\u0120surv": 2834,
      "rior": 2835,
      "oin": 2836,
      "\u0120built": 2837,
      "\u0120No": 2838,
      "\u0120aware": 2839,
      "orpor": 2840,
      "\u0120started": 2841,
      "\u0120led": 2842,
      "\u0120issue": 2843,
      "\u0120historical": 2844,
      "vey": 2845,
      "\u0120pict": 2846,
      "\u0120Dep": 2847,
      "\u0120longer": 2848,
      "\u0120fem": 2849,
      "\u0120Ag": 2850,
      "\u0120performance": 2851,
      "\u0120greater": 2852,
      "\u0120stop": 2853,
      "\u0120Jew": 2854,
      "\u0120written": 2855,
      "\u0120outside": 2856,
      "\u0120inj": 2857,
      "\u0120surround": 2858,
      "\u0120models": 2859,
      "\u0120Par": 2860,
      "porary": 2861,
      "su": 2862,
      "\u0120York": 2863,
      "ounter": 2864,
      "ribution": 2865,
      "enced": 2866,
      "\u0120Me": 2867,
      "ension": 2868,
      "\u0120aud": 2869,
      "estern": 2870,
      "num": 2871,
      "\u0120wild": 2872,
      "\u0120compan": 2873,
      "\u0120lands": 2874,
      "\u0120believe": 2875,
      "\u0120points": 2876,
      "fect": 2877,
      "rig": 2878,
      "vant": 2879,
      "].": 2880,
      "itute": 2881,
      "ography": 2882,
      "\u0120diagn": 2883,
      "\u0120financ": 2884,
      "\u0120decl": 2885,
      "\u0120beaut": 2886,
      "\u0120correct": 2887,
      "\u0120State": 2888,
      "ait": 2889,
      "\u0120slow": 2890,
      "\u0120movement": 2891,
      "\u0120fire": 2892,
      "\u0120behind": 2893,
      "\u0120progress": 2894,
      "curity": 2895,
      "\u0120threat": 2896,
      "\u0120assert": 2897,
      "\u0120mental": 2898,
      "\u0120leading": 2899,
      "yond": 2900,
      "IT": 2901,
      "\u0120media": 2902,
      "ervation": 2903,
      "\u0120Research": 2904,
      "\u0120books": 2905,
      "oved": 2906,
      "\u0120scientists": 2907,
      "\u0120communication": 2908,
      "\u0120code": 2909,
      "\u0120mom": 2910,
      "\u0120ones": 2911,
      "opt": 2912,
      "\u0120Cons": 2913,
      "\u0120user": 2914,
      "\u0120remember": 2915,
      "che": 2916,
      "\u0120fram": 2917,
      "izations": 2918,
      "ronic": 2919,
      "\u0120standard": 2920,
      "\u0120viol": 2921,
      "eters": 2922,
      "\u0120Co": 2923,
      "minist": 2924,
      "\u0120uses": 2925,
      "\u0120evalu": 2926,
      "\u0120Canad": 2927,
      "ilies": 2928,
      "\u0120custom": 2929,
      "\u0120adapt": 2930,
      "So": 2931,
      "\u0120broad": 2932,
      "\u0120takes": 2933,
      "inating": 2934,
      "apan": 2935,
      "\u0120altern": 2936,
      "\u0120fru": 2937,
      "\u0120British": 2938,
      "issions": 2939,
      "\u0120colle": 2940,
      "\u0120developing": 2941,
      "where": 2942,
      "ricult": 2943,
      "rate": 2944,
      "rew": 2945,
      "standing": 2946,
      "ban": 2947,
      "\u0120ec": 2948,
      "username": 2949,
      "\u0120safety": 2950,
      "\u0120stay": 2951,
      "\u0120caused": 2952,
      "\u010a\u0120\u0120\u0120\u0120\u0120\u0120\u0120\u0120\u0120\u0120\u0120\u0120\u0120\u0120\u0120\u0120\u0120\u0120\u0120\u0120\u0120\u0120\u0120\u0120": 2953,
      "Pro": 2954,
      "\u0120normal": 2955,
      "\u0120daily": 2956,
      "inally": 2957,
      "ached": 2958,
      "\u0120Let": 2959,
      "oor": 2960,
      "size": 2961,
      "ologies": 2962,
      "\u0120appropri": 2963,
      "\u0120wond": 2964,
      "\u0120write": 2965,
      "\u0120numbers": 2966,
      "\u0120getting": 2967,
      "ades": 2968,
      "\u0120growing": 2969,
      "reci": 2970,
      "ls": 2971,
      "\u0120inside": 2972,
      "\u0120humans": 2973,
      "\u0120Car": 2974,
      "rought": 2975,
      "\u0120six": 2976,
      "dd": 2977,
      "\u0120includes": 2978,
      "\u0120importance": 2979,
      "amb": 2980,
      "\u0120causes": 2981,
      "ufact": 2982,
      "\u0120policy": 2983,
      "ged": 2984,
      "\u0120smo": 2985,
      "\u0120>": 2986,
      "\u0120basic": 2987,
      "\u0120answer": 2988,
      "\u0120Us": 2989,
      "\u0120leaders": 2990,
      "\u0120safe": 2991,
      "\u0120innov": 2992,
      "\u0120Ne": 2993,
      "\u0120complete": 2994,
      "\u0120Under": 2995,
      "chol": 2996,
      "\u0120accur": 2997,
      "\u0120reve": 2998,
      "\u0120insp": 2999,
      "\u0120Pre": 3000,
      "\u0120sustain": 3001,
      "word": 3002,
      "\u0120primary": 3003,
      "\u0120features": 3004,
      "\u0120prep": 3005,
      "bol": 3006,
      "\u0120input": 3007,
      "\u0120late": 3008,
      "\u0120--": 3009,
      "ED": 3010,
      "amples": 3011,
      "\u0120looking": 3012,
      "\u0120page": 3013,
      "\u0120webs": 3014,
      "\u0120talk": 3015,
      "\u0120efforts": 3016,
      "\u0120Per": 3017,
      "\u0120exact": 3018,
      "umb": 3019,
      "IC": 3020,
      "ken": 3021,
      "uth": 3022,
      "ttps": 3023,
      "\u0120tax": 3024,
      "\u0120achieve": 3025,
      "ament": 3026,
      "\u0120Many": 3027,
      "ials": 3028,
      "duc": 3029,
      "pes": 3030,
      "\u0120squ": 3031,
      "fort": 3032,
      "resh": 3033,
      "\u0120shap": 3034,
      "\u0120guid": 3035,
      "\u0120opportunities": 3036,
      "\u0120scre": 3037,
      "Up": 3038,
      "\u0120thinking": 3039,
      "\u0120shape": 3040,
      "tings": 3041,
      "cles": 3042,
      "\u0120overall": 3043,
      "\u0120div": 3044,
      "\u0120investig": 3045,
      "\u0120independ": 3046,
      "atively": 3047,
      "\u0120visit": 3048,
      "\u0120average": 3049,
      "\u0120cross": 3050,
      "\u0120stru": 3051,
      "\u0120Fl": 3052,
      "\u0120compared": 3053,
      "\u0120valu": 3054,
      "\u0120damage": 3055,
      "\u0120School": 3056,
      "\u0120shown": 3057,
      "\u0120camp": 3058,
      "\u0120earl": 3059,
      "'ll": 3060,
      "\u0120appl": 3061,
      "\u0120decision": 3062,
      "haps": 3063,
      "\u0120cit": 3064,
      "www": 3065,
      "room": 3066,
      "erson": 3067,
      "\u0120strategies": 3068,
      "\u0120Qu": 3069,
      "\u0120beyond": 3070,
      "rench": 3071,
      "ounds": 3072,
      "\u0120requires": 3073,
      "itude": 3074,
      "\u0120force": 3075,
      "\u0120bacter": 3076,
      "\u0120patterns": 3077,
      "\u0120processes": 3078,
      "\u0120rout": 3079,
      "\u0120wid": 3080,
      "\u0120kids": 3081,
      "\u0120network": 3082,
      "\u0120poll": 3083,
      "\u0120ful": 3084,
      "\u0120Japan": 3085,
      "\u0120series": 3086,
      "By": 3087,
      "gar": 3088,
      "\u0120India": 3089,
      "term": 3090,
      "\u0120warm": 3091,
      "\u0120lo": 3092,
      "\u0120bill": 3093,
      "ederal": 3094,
      "ously": 3095,
      "\u0120lack": 3096,
      "\u0120scientific": 3097,
      "resp": 3098,
      "\u0120electric": 3099,
      "\u0120quite": 3100,
      "uments": 3101,
      "\u0120town": 3102,
      "\u0120earth": 3103,
      "\u0120magn": 3104,
      "\u0120probably": 3105,
      "\u0120Sim": 3106,
      "log": 3107,
      "\u0120theory": 3108,
      "ciples": 3109,
      "\u0120attempt": 3110,
      "\u0120foods": 3111,
      "\u0120quickly": 3112,
      "\u0120international": 3113,
      "\u0120cover": 3114,
      "pper": 3115,
      "\u0120request": 3116,
      "\u0120everything": 3117,
      "\u0120carbon": 3118,
      "rated": 3119,
      "\u0120collab": 3120,
      "\u0120Through": 3121,
      "\u0120cool": 3122,
      "\u0120pack": 3123,
      "\u0120output": 3124,
      "\u0120inform": 3125,
      "inct": 3126,
      "ST": 3127,
      "\u0120Des": 3128,
      "ream": 3129,
      "asons": 3130,
      "aly": 3131,
      "\u0120colon": 3132,
      "\u0120game": 3133,
      "\u0120eat": 3134,
      "met": 3135,
      "\u010d\u010a\u0120\u0120\u0120": 3136,
      "append": 3137,
      "cret": 3138,
      "hens": 3139,
      "\u0120document": 3140,
      "abet": 3141,
      "\u0120predict": 3142,
      "more": 3143,
      "AC": 3144,
      "\u0120visual": 3145,
      "\u0120prec": 3146,
      "oday": 3147,
      "\u0120appreci": 3148,
      "\u0120tri": 3149,
      "\u0120forest": 3150,
      "isms": 3151,
      "\u0120easily": 3152,
      "rie": 3153,
      "point": 3154,
      "\u0120Ret": 3155,
      "\u0120ago": 3156,
      "vention": 3157,
      "\u0120patient": 3158,
      "\u0120base": 3159,
      "iency": 3160,
      "\u0120animal": 3161,
      "lease": 3162,
      "\u0120night": 3163,
      "ellow": 3164,
      "\u0120lif": 3165,
      "iring": 3166,
      "\u0120host": 3167,
      "\u0120families": 3168,
      "\u0120perspect": 3169,
      "\u0120ir": 3170,
      "\u0120additional": 3171,
      "\u0120valuable": 3172,
      "illi": 3173,
      "\u0120sect": 3174,
      "\u0120variety": 3175,
      "\u0120teachers": 3176,
      "idge": 3177,
      "\u0120generally": 3178,
      "\u0120search": 3179,
      "\u0120wood": 3180,
      "\u0120civil": 3181,
      "\u0120digital": 3182,
      "\u0120poor": 3183,
      "\u0120gain": 3184,
      "\u0120cou": 3185,
      "\u0120veget": 3186,
      "\u0120tree": 3187,
      "ilos": 3188,
      "just": 3189,
      "oles": 3190,
      "\u0120Science": 3191,
      "\u0120Reg": 3192,
      "\u0120difference": 3193,
      "erate": 3194,
      "\u0120academ": 3195,
      "ceed": 3196,
      "\u0120software": 3197,
      "alking": 3198,
      "\u0120serious": 3199,
      "\u0120influence": 3200,
      "\u0120ancient": 3201,
      "\u0120crucial": 3202,
      "\u0120Austral": 3203,
      "\u0120lines": 3204,
      "uge": 3205,
      "AL": 3206,
      "\u0120becomes": 3207,
      "\u0120dou": 3208,
      "ession": 3209,
      "vert": 3210,
      "mission": 3211,
      "\u0120active": 3212,
      "\u0120reported": 3213,
      "\u0120CO": 3214,
      "izes": 3215,
      "\u0120financial": 3216,
      "\u0120manufact": 3217,
      "igen": 3218,
      "lim": 3219,
      "inks": 3220,
      "value": 3221,
      "\"]": 3222,
      "\u0120situation": 3223,
      "itch": 3224,
      "uild": 3225,
      "osing": 3226,
      "\u0120larger": 3227,
      "\u0120Min": 3228,
      "\u0120teaching": 3229,
      "\u0120fit": 3230,
      "ana": 3231,
      "oud": 3232,
      "encies": 3233,
      "ief": 3234,
      "\u0120added": 3235,
      "\u0120Art": 3236,
      "odes": 3237,
      "\u0120Pres": 3238,
      "ynam": 3239,
      "\u0120optim": 3240,
      "\u0120bit": 3241,
      "\u0120prin": 3242,
      "\u0120companies": 3243,
      "\u0120hyd": 3244,
      "roup": 3245,
      "\u0120section": 3246,
      "\u0120isn": 3247,
      "odies": 3248,
      "\u0120included": 3249,
      "ha": 3250,
      "\u0120established": 3251,
      "\u0120table": 3252,
      "\u0120applications": 3253,
      "\u0120calcul": 3254,
      "alls": 3255,
      "RE": 3256,
      "itable": 3257,
      "\u0120providing": 3258,
      "bor": 3259,
      "\u0120aspects": 3260,
      "\u0120King": 3261,
      "uries": 3262,
      "\u0120ox": 3263,
      "\u0120tend": 3264,
      "\u0120images": 3265,
      "rial": 3266,
      "\u0120remains": 3267,
      "\u0120sil": 3268,
      "\u0120powerful": 3269,
      "ancy": 3270,
      "wise": 3271,
      "print": 3272,
      "ucle": 3273,
      "ret": 3274,
      "\u0120China": 3275,
      "\u0120prior": 3276,
      "IV": 3277,
      "\u0120Part": 3278,
      "\u0120application": 3279,
      "On": 3280,
      "\u0120produced": 3281,
      "\u0120feet": 3282,
      "ulate": 3283,
      "\u0120European": 3284,
      "ille": 3285,
      "\u0120bur": 3286,
      "\u0120speak": 3287,
      "\u0120hands": 3288,
      "\u0120friend": 3289,
      "\u0120fost": 3290,
      "\u0120Comp": 3291,
      "\u0120security": 3292,
      "\u0120conflic": 3293,
      "ibrary": 3294,
      "\u0120Tra": 3295,
      "ception": 3296,
      "\u0120,": 3297,
      "mar": 3298,
      "\u010a\u0120\u0120\u0120\u0120\u0120\u0120\u0120\u0120\u0120\u0120\u0120\u0120\u0120\u0120\u0120\u0120\u0120\u0120\u0120\u0120\u0120\u0120\u0120\u0120\u0120\u0120\u0120\u0120\u0120\u0120\u0120\u0120": 3299,
      "\u0120From": 3300,
      "\u0120steps": 3301,
      "\u0120hor": 3302,
      "\u0120gard": 3303,
      "emporary": 3304,
      "\u0120Just": 3305,
      "\u0120concent": 3306,
      "anks": 3307,
      "lands": 3308,
      "\u0120bad": 3309,
      "\u0120thus": 3310,
      "\u0120mention": 3311,
      "phas": 3312,
      "\u0120ult": 3313,
      "\u0120Count": 3314,
      "\u0120Do": 3315,
      "\u0120ep": 3316,
      "\u0120transport": 3317,
      "\u0120soon": 3318,
      "\u0120directly": 3319,
      "\u0120religious": 3320,
      "cks": 3321,
      "\u0120thous": 3322,
      "\u0120eye": 3323,
      "\u0120quant": 3324,
      "care": 3325,
      "enge": 3326,
      "\"\"\"": 3327,
      "med": 3328,
      "\u0120virus": 3329,
      "\u0120spirit": 3330,
      "\u0120Russ": 3331,
      "rror": 3332,
      "bit": 3333,
      "\u0120sn": 3334,
      "ino": 3335,
      "\u0120immedi": 3336,
      "\u010a\u0120\u0120\u0120\u0120\u0120\u0120\u0120\u0120\u0120\u0120\u0120\u0120\u0120\u0120\u0120\u0120\u0120\u0120\u0120\u0120\u0120\u0120\u0120": 3337,
      "itect": 3338,
      "\u0120ang": 3339,
      "\u0120dang": 3340,
      "\u0120video": 3341,
      "arv": 3342,
      "uff": 3343,
      "requ": 3344,
      "ev": 3345,
      "\u0120determine": 3346,
      "ran": 3347,
      "\u0120establish": 3348,
      "\u0120Not": 3349,
      "\u0120appropriate": 3350,
      "\u0120\u00c2": 3351,
      "mat": 3352,
      "ying": 3353,
      "\u010a\u0109": 3354,
      "\u0120relationships": 3355,
      "\u0120ast": 3356,
      "\u0120belief": 3357,
      "\u0120responsible": 3358,
      "\u0120projects": 3359,
      "\u0120Pol": 3360,
      "\u0120My": 3361,
      "\u0120offers": 3362,
      "\u0120got": 3363,
      "ience": 3364,
      "\u0120named": 3365,
      "\u0120fasc": 3366,
      "\u0120estim": 3367,
      "\u0120waste": 3368,
      "\u0120diseases": 3369,
      "\u0120gradu": 3370,
      "\u0120convers": 3371,
      "\u0120rules": 3372,
      "\u0120places": 3373,
      "\u0120foot": 3374,
      "\u0120cele": 3375,
      "ifically": 3376,
      "\u0120expos": 3377,
      "\u0120os": 3378,
      "\u0120mother": 3379,
      "\u0120hot": 3380,
      "\u0120devices": 3381,
      "\u0120propos": 3382,
      "\u0120bab": 3383,
      "\u0120diverse": 3384,
      "\u0120military": 3385,
      "\u0120refer": 3386,
      "\u0120agree": 3387,
      "\u0120exercise": 3388,
      "\u0120Dis": 3389,
      "\u0120proced": 3390,
      "assert": 3391,
      "\u0120incorpor": 3392,
      "\u0120expected": 3393,
      "\u0120@": 3394,
      "\u0120Ed": 3395,
      "\u0120trying": 3396,
      "\u0120install": 3397,
      "\u0120road": 3398,
      "\u0120sus": 3399,
      "\u0120rates": 3400,
      "\u0120objects": 3401,
      "\u0120complet": 3402,
      "\u0120final": 3403,
      "hors": 3404,
      "orders": 3405,
      "\u0120cred": 3406,
      "\u0120decre": 3407,
      "\u0120held": 3408,
      "inated": 3409,
      "\u0120nav": 3410,
      "dict": 3411,
      "\u0120mix": 3412,
      "\u0120asked": 3413,
      "\u0120attack": 3414,
      "\u0120exploring": 3415,
      "\u0120options": 3416,
      "\u0120trees": 3417,
      "\u0120interpre": 3418,
      "\u0120seems": 3419,
      "ecause": 3420,
      "\u0120card": 3421,
      "illing": 3422,
      "\u0120und": 3423,
      "\u0120successful": 3424,
      "\u0120legal": 3425,
      "\u0120sea": 3426,
      "\u0120strugg": 3427,
      "\u0120rich": 3428,
      "\u0120Educ": 3429,
      "off": 3430,
      "\u0120typically": 3431,
      "\u0120French": 3432,
      "\u0120front": 3433,
      "\u0120mis": 3434,
      "\u0120limited": 3435,
      "hemat": 3436,
      "comp": 3437,
      "ET": 3438,
      "\u0120components": 3439,
      "iful": 3440,
      "\u0120Gl": 3441,
      "\u0120nation": 3442,
      "ding": 3443,
      "\u0120journey": 3444,
      "\u0120involves": 3445,
      "\u0120purpose": 3446,
      "used": 3447,
      "writ": 3448,
      "\u0120whose": 3449,
      "\u0120Cour": 3450,
      "\u0120vacc": 3451,
      "\u0120highly": 3452,
      "\u0120rob": 3453,
      "ellig": 3454,
      "\u0120breat": 3455,
      "\u0120favor": 3456,
      "\u0120jud": 3457,
      "rong": 3458,
      "\u0120sold": 3459,
      "life": 3460,
      "Res": 3461,
      "inst": 3462,
      "inate": 3463,
      "\u0120third": 3464,
      "\u0120useful": 3465,
      "\u0120central": 3466,
      "\u0120raise": 3467,
      "\u0120perfect": 3468,
      "dir": 3469,
      "\u0120reach": 3470,
      "istry": 3471,
      "\u0120therefore": 3472,
      "At": 3473,
      "\u0120stri": 3474,
      "\u0120clin": 3475,
      "\u0120device": 3476,
      "format": 3477,
      "\u0120obtain": 3478,
      "\u0120Ju": 3479,
      "\u0120examples": 3480,
      "iles": 3481,
      "None": 3482,
      "\u0120Although": 3483,
      "oming": 3484,
      "\u0120learned": 3485,
      "\u0120African": 3486,
      "\u0120minutes": 3487,
      "\u0120Her": 3488,
      "oat": 3489,
      "uman": 3490,
      "\u0120goal": 3491,
      "df": 3492,
      "ipment": 3493,
      "param": 3494,
      "atform": 3495,
      "\u0120labor": 3496,
      "\u0120eyes": 3497,
      "\u0120dry": 3498,
      "\u0120costs": 3499,
      "\u0120memory": 3500,
      "\u0120property": 3501,
      "\u0120continu": 3502,
      "\u0120Mod": 3503,
      "eks": 3504,
      "Error": 3505,
      "\u0120fair": 3506,
      "\u0120vit": 3507,
      "\u0120First": 3508,
      "\u0120load": 3509,
      "water": 3510,
      "\u0120Sm": 3511,
      "Step": 3512,
      "\u0120Of": 3513,
      "\u0120went": 3514,
      "\u0120transform": 3515,
      "\u0120demand": 3516,
      "========": 3517,
      "\u0120Africa": 3518,
      "\u0120length": 3519,
      "change": 3520,
      "overy": 3521,
      "Section": 3522,
      "\u0120severe": 3523,
      "\u0120negative": 3524,
      "\u0120choose": 3525,
      "rap": 3526,
      "\u0120communic": 3527,
      "And": 3528,
      "\u0120Most": 3529,
      "\u0120Indian": 3530,
      "\u0120month": 3531,
      "\u0120chapter": 3532,
      "asks": 3533,
      "\u0120anything": 3534,
      "\u0120respond": 3535,
      "\u0120Ac": 3536,
      "attle": 3537,
      "\u0120fast": 3538,
      "\u0120rapid": 3539,
      "ashing": 3540,
      "cape": 3541,
      "\u0120protection": 3542,
      "'ve": 3543,
      "\u0120professional": 3544,
      "iot": 3545,
      "na": 3546,
      "\u0120speed": 3547,
      "\u0120sequ": 3548,
      "useum": 3549,
      "\u0120Other": 3550,
      "\u0120although": 3551,
      "urg": 3552,
      "\u0120param": 3553,
      "\u0120Christian": 3554,
      "\u0120categ": 3555,
      "\u0120explain": 3556,
      "\u0120pan": 3557,
      "\u010a\u0109\u0109": 3558,
      "\u0120status": 3559,
      "\u0120via": 3560,
      "\u0120fa": 3561,
      "\u0120novel": 3562,
      "lation": 3563,
      "\u0120solution": 3564,
      "cean": 3565,
      "ml": 3566,
      "\u0120Jan": 3567,
      "\u0120fight": 3568,
      "\u0120Now": 3569,
      "\u0120mount": 3570,
      "\u0120significantly": 3571,
      "ocks": 3572,
      "\u0120symbol": 3573,
      "fficient": 3574,
      "\u0120capital": 3575,
      "ech": 3576,
      "\u0120supply": 3577,
      "\u0120contribute": 3578,
      "\u0120Rem": 3579,
      "\u0120cam": 3580,
      "\u0120differences": 3581,
      "\u0120capac": 3582,
      "\u0120behavi": 3583,
      "\u0120regarding": 3584,
      "undred": 3585,
      "\u0120version": 3586,
      "ager": 3587,
      "\u0120command": 3588,
      "\u0120room": 3589,
      "\u0120lost": 3590,
      "comment": 3591,
      "oe": 3592,
      "\u0120contains": 3593,
      "\u0120Techn": 3594,
      "state": 3595,
      "\u0120Val": 3596,
      "\u0120habit": 3597,
      "\u0120adults": 3598,
      "\u0120wide": 3599,
      "\u0120shared": 3600,
      "\u0120autom": 3601,
      "\u0120advant": 3602,
      "Cl": 3603,
      "iny": 3604,
      "\u0120dark": 3605,
      "\u0120Mus": 3606,
      "\u0120bound": 3607,
      "\u0120block": 3608,
      "ius": 3609,
      "year": 3610,
      "\u0120consequ": 3611,
      "\u0120citiz": 3612,
      "rition": 3613,
      "roduction": 3614,
      "omet": 3615,
      "\u0120beginning": 3616,
      "uk": 3617,
      "\u0120principles": 3618,
      "uary": 3619,
      "\u0120workers": 3620,
      "\u0120brought": 3621,
      "\u0120http": 3622,
      "\u0120ing": 3623,
      "\u0120emphas": 3624,
      "\u0120encourag": 3625,
      "\u0120structures": 3626,
      "\u0120Aug": 3627,
      "\u0120Jes": 3628,
      "\u0120users": 3629,
      "\u0120balance": 3630,
      "\u0120carry": 3631,
      "\u0120stage": 3632,
      "\u0120dim": 3633,
      "\u0120trust": 3634,
      "\u0120True": 3635,
      "\u0120Over": 3636,
      "cious": 3637,
      "iter": 3638,
      "\u0120veh": 3639,
      "____": 3640,
      "wide": 3641,
      "\u0120tests": 3642,
      "\u0120actions": 3643,
      "\u0120Center": 3644,
      "\u0120season": 3645,
      "\u0120private": 3646,
      "\u0120exec": 3647,
      "\u0120doctor": 3648,
      "erences": 3649,
      "\u0120Gree": 3650,
      "\u0120sec": 3651,
      "sect": 3652,
      "iers": 3653,
      "\u0120forces": 3654,
      "\u0120appe": 3655,
      "\u0120received": 3656,
      "\u0120literature": 3657,
      "\u0120discovered": 3658,
      "with": 3659,
      "iforn": 3660,
      "\u0120news": 3661,
      "gn": 3662,
      "acters": 3663,
      "\u0120agricult": 3664,
      "\u0120accom": 3665,
      "\u0120mag": 3666,
      "osition": 3667,
      "\u0120tim": 3668,
      "\u0120neigh": 3669,
      "\u0120graph": 3670,
      "oting": 3671,
      "\u0120acid": 3672,
      "\u0120limit": 3673,
      "\u0120defin": 3674,
      "\u0120continued": 3675,
      "idents": 3676,
      "\u0120protein": 3677,
      "\u0120hon": 3678,
      "\u0120administ": 3679,
      "\u0120saw": 3680,
      "He": 3681,
      "unction": 3682,
      "\u0120didn": 3683,
      "\u0120interesting": 3684,
      "\u0120earlier": 3685,
      "ios": 3686,
      "\u0120birth": 3687,
      "\u0120date": 3688,
      "\u0120West": 3689,
      "\u0120der": 3690,
      "\u0120functions": 3691,
      "\u0120Mon": 3692,
      "\u0120solar": 3693,
      "\u0120discover": 3694,
      "\u0120location": 3695,
      "\u0120fear": 3696,
      "\u0120German": 3697,
      "\u0120Our": 3698,
      "ocol": 3699,
      "EC": 3700,
      "\u0120Tw": 3701,
      "\u0120virt": 3702,
      "\u0120forward": 3703,
      "unch": 3704,
      "\u0120fields": 3705,
      "Un": 3706,
      "\u0120laws": 3707,
      "udd": 3708,
      "EM": 3709,
      "\u0120reasons": 3710,
      "\u0120leaves": 3711,
      "\u0120center": 3712,
      "\u0120II": 3713,
      "\u0120message": 3714,
      "abetes": 3715,
      "\u0120infection": 3716,
      "\u0120\u010a": 3717,
      "zz": 3718,
      "efore": 3719,
      "\u0120organizations": 3720,
      "estic": 3721,
      "\u0120cra": 3722,
      "\u0120items": 3723,
      "\u0120benefit": 3724,
      "```": 3725,
      "\u0120Here": 3726,
      "\u0120teach": 3727,
      "\u0120testing": 3728,
      "ternal": 3729,
      "\u0120recommend": 3730,
      "aught": 3731,
      "\u0120mole": 3732,
      "Re": 3733,
      "():": 3734,
      "\u0120trade": 3735,
      "\u0120measures": 3736,
      "\u0120weeks": 3737,
      "start": 3738,
      "omy": 3739,
      "ky": 3740,
      "\u0120emp": 3741,
      "\u0120Even": 3742,
      "\u0120teacher": 3743,
      "ifornia": 3744,
      "\u0120bra": 3745,
      "\u0120machine": 3746,
      "\u0120compre": 3747,
      "\u0120vo": 3748,
      "\u0120depend": 3749,
      "Com": 3750,
      "\u0120therapy": 3751,
      "\u0120root": 3752,
      "\u0120resource": 3753,
      "\u0120construct": 3754,
      "aid": 3755,
      "\u0120Great": 3756,
      "###": 3757,
      "\u0120efficient": 3758,
      "abilities": 3759,
      "\u0120History": 3760,
      "ser": 3761,
      "__(": 3762,
      "\u0120won": 3763,
      "\u0120smaller": 3764,
      "\u0120Develop": 3765,
      "\u0120prop": 3766,
      "book": 3767,
      "\u0120Each": 3768,
      "arian": 3769,
      "\u0120controll": 3770,
      "votes": 3771,
      "\u0120ten": 3772,
      "ula": 3773,
      "\u0120Institute": 3774,
      "\u0120challenge": 3775,
      "\u0120Child": 3776,
      "\u0120apply": 3777,
      "\u0120Ant": 3778,
      "ought": 3779,
      "Ar": 3780,
      "plit": 3781,
      "pril": 3782,
      "\u0120told": 3783,
      "\u0120copy": 3784,
      "\u0120egg": 3785,
      "\u0120shall": 3786,
      "\u0120opportunity": 3787,
      "\u0120illust": 3788,
      "ditionally": 3789,
      "\u0120Trans": 3790,
      "\u0120initial": 3791,
      "ira": 3792,
      "ony": 3793,
      "\u0120essay": 3794,
      "\u0120deal": 3795,
      "\u0120receive": 3796,
      "config": 3797,
      "\u0120dynam": 3798,
      "ancing": 3799,
      "\u0120piece": 3800,
      "\u0120eating": 3801,
      "rote": 3802,
      "\u0120authors": 3803,
      "bre": 3804,
      "\u010a\u0120": 3805,
      "que": 3806,
      "\u0120located": 3807,
      "\u0120vict": 3808,
      "\u0120serve": 3809,
      "\u0120philos": 3810,
      "\u0120thr": 3811,
      "\u0120assign": 3812,
      "\u0120equipment": 3813,
      "\u0120\\": 3814,
      "\u0120degree": 3815,
      "''": 3816,
      "\u0120website": 3817,
      "\u0120International": 3818,
      "Upvotes": 3819,
      "\u0120Department": 3820,
      "atur": 3821,
      "\u0120hundred": 3822,
      "apers": 3823,
      "\u0120numerous": 3824,
      "With": 3825,
      "\u0120hope": 3826,
      "\u0120util": 3827,
      "\u0120Commun": 3828,
      "\u0120System": 3829,
      "ournal": 3830,
      "max": 3831,
      "\u0120existing": 3832,
      "\u0120display": 3833,
      "\u0120names": 3834,
      "coh": 3835,
      "\u0120constant": 3836,
      "\u0120Sw": 3837,
      "irection": 3838,
      "\u00e2\u0122\u00a2": 3839,
      "\u0120ax": 3840,
      "\u0120details": 3841,
      "\u0120repl": 3842,
      "outhern": 3843,
      "\u0120journal": 3844,
      "ingu": 3845,
      "################": 3846,
      "\u0120moment": 3847,
      "airs": 3848,
      "\u0120properties": 3849,
      "\u0120concepts": 3850,
      "\u0120initi": 3851,
      "gram": 3852,
      "ulated": 3853,
      "\u0120collection": 3854,
      "\u0120Their": 3855,
      "\u0120task": 3856,
      "\u0120Oct": 3857,
      "\u0120len": 3858,
      "inese": 3859,
      "\u0120solutions": 3860,
      "\u0120rare": 3861,
      "\u0120Lear": 3862,
      "\u0120concerns": 3863,
      "known": 3864,
      "\u0120feature": 3865,
      "\u0120architect": 3866,
      "\u0120effort": 3867,
      "\u0120Serv": 3868,
      "\u0120exactly": 3869,
      "\u0120characters": 3870,
      "\u0120alg": 3871,
      "AP": 3872,
      "\u0120described": 3873,
      "urt": 3874,
      "\u0120Then": 3875,
      "\u0120expand": 3876,
      "\u0120web": 3877,
      "\u0120nothing": 3878,
      "\u0120sites": 3879,
      "eper": 3880,
      "rogen": 3881,
      "ocr": 3882,
      "ensity": 3883,
      "\u0120decisions": 3884,
      "\u0120exposure": 3885,
      "\u0120Jesus": 3886,
      "\u0120scen": 3887,
      "index": 3888,
      "\u0120California": 3889,
      "\u0120connection": 3890,
      "\u0120middle": 3891,
      "\u0120burn": 3892,
      "\u0120bott": 3893,
      "\u0120gives": 3894,
      "\u0120dead": 3895,
      "\u0120narr": 3896,
      "\u0120During": 3897,
      "\u0120save": 3898,
      "igenous": 3899,
      "\u0120affected": 3900,
      "\u0120construction": 3901,
      "These": 3902,
      "\u0120March": 3903,
      "\u0120organization": 3904,
      "\u0120identity": 3905,
      "\u0120El": 3906,
      "AD": 3907,
      "\u0120ice": 3908,
      "\u0120instru": 3909,
      "\u0120allowing": 3910,
      "RO": 3911,
      "\u0120contemporary": 3912,
      "\u0120Americans": 3913,
      "\u010a\u0120\u0120\u0120\u0120\u0120": 3914,
      "\u0120nucle": 3915,
      "ests": 3916,
      "\u0120allowed": 3917,
      "elines": 3918,
      "usion": 3919,
      "\u0120nearly": 3920,
      "\u0120mid": 3921,
      "\u0120followed": 3922,
      "ibly": 3923,
      "ned": 3924,
      "\u0120planet": 3925,
      "\u0120acqu": 3926,
      "uration": 3927,
      "\u0120recently": 3928,
      "\u0120Well": 3929,
      "\u0120himself": 3930,
      "\u0120mut": 3931,
      "\u0120hous": 3932,
      "\u0120maxim": 3933,
      "\u0120leave": 3934,
      "\u0120goes": 3935,
      "works": 3936,
      "urb": 3937,
      "\u0120rule": 3938,
      "\u0120bacteria": 3939,
      "\u0120mig": 3940,
      "\u0120platform": 3941,
      "\u0120swe": 3942,
      "\u0120older": 3943,
      "orthern": 3944,
      "ME": 3945,
      "\u0120planning": 3946,
      "\u0120weather": 3947,
      "\u0120guide": 3948,
      "\u0120goals": 3949,
      "\u0120Red": 3950,
      "xi": 3951,
      "comes": 3952,
      "\u0120beautiful": 3953,
      "\u0120reduced": 3954,
      "ero": 3955,
      "\u0120miss": 3956,
      "\u0120ded": 3957,
      "orage": 3958,
      "\u0120According": 3959,
      "pan": 3960,
      "\u0120fresh": 3961,
      "\u0120connections": 3962,
      "\u0120technologies": 3963,
      "\u0120scale": 3964,
      "While": 3965,
      "vis": 3966,
      ":**": 3967,
      "itis": 3968,
      "\u0120background": 3969,
      "\u0120Hol": 3970,
      "\u0120infect": 3971,
      "\u0120hol": 3972,
      "och": 3973,
      "\u0120standards": 3974,
      "\u0120pow": 3975,
      "mosp": 3976,
      "\u0120fuel": 3977,
      "rees": 3978,
      "ogle": 3979,
      "model": 3980,
      "loc": 3981,
      "\u0120sugar": 3982,
      "gy": 3983,
      "\u0120heard": 3984,
      "\u0120box": 3985,
      "tes": 3986,
      "\u0120fib": 3987,
      "\u0120born": 3988,
      "ilit": 3989,
      "\u0120surrounding": 3990,
      "aled": 3991,
      "\u0120River": 3992,
      "\u0120valid": 3993,
      "\u0120bul": 3994,
      "\u0120largest": 3995,
      "\u0120England": 3996,
      "\u0120style": 3997,
      "ulum": 3998,
      "\u0120navig": 3999,
      "ogen": 4000,
      "\u0120qual": 4001,
      "plications": 4002,
      "\u0120divers": 4003,
      "\u0120Canada": 4004,
      "cons": 4005,
      "\u0120relevant": 4006,
      "\u0120core": 4007,
      "ags": 4008,
      "see": 4009,
      "\u0120celebr": 4010,
      "\u0120cold": 4011,
      "\u0120perhaps": 4012,
      "\u0120fascinating": 4013,
      "rael": 4014,
      "\u0120hyp": 4015,
      "\u0120alone": 4016,
      "\u0120den": 4017,
      "\u0120summer": 4018,
      "\u0120June": 4019,
      "\u0120Further": 4020,
      "force": 4021,
      "\u0120rock": 4022,
      "\u0120Inter": 4023,
      "reme": 4024,
      "\u0120effectively": 4025,
      "iliar": 4026,
      "\u0120Once": 4027,
      "\u0120member": 4028,
      "\u0120}": 4029,
      "\u0120basis": 4030,
      "\u0120approx": 4031,
      "\u0120config": 4032,
      "\u0120peace": 4033,
      "\u0120gender": 4034,
      "\u0120applied": 4035,
      "\u0120completely": 4036,
      "\u0120equal": 4037,
      "Int": 4038,
      "rupt": 4039,
      "\u0120stra": 4040,
      "\u0120decided": 4041,
      "\u0120IS": 4042,
      "\u0120Sept": 4043,
      "ffect": 4044,
      "edom": 4045,
      "mitted": 4046,
      "\u0120element": 4047,
      "\u0120worth": 4048,
      "\u0120tou": 4049,
      "aste": 4050,
      "\u0120coast": 4051,
      "\u0120distance": 4052,
      "\u0120August": 4053,
      "\u0120setting": 4054,
      "can": 4055,
      "\u0120Ke": 4056,
      "\u0120policies": 4057,
      "\u0120promote": 4058,
      "\u0120Associ": 4059,
      "\u0120default": 4060,
      "\u0120wrong": 4061,
      "mp": 4062,
      "\u0120Press": 4063,
      "\u0120coll": 4064,
      "men": 4065,
      "ros": 4066,
      "\u0120purch": 4067,
      "ounc": 4068,
      "\u0120involve": 4069,
      "\u0120layer": 4070,
      "atus": 4071,
      "\u0120academic": 4072,
      "\u0120distinct": 4073,
      "\u0120princ": 4074,
      "ara": 4075,
      "\u0120Use": 4076,
      "\u0120teeth": 4077,
      "\u0120cop": 4078,
      "\u0120findings": 4079,
      "\u0120py": 4080,
      "\u0120north": 4081,
      "ht": 4082,
      "\u0120father": 4083,
      "\u0120tru": 4084,
      "--------------------------------": 4085,
      "cipl": 4086,
      "\u0120detect": 4087,
      "iding": 4088,
      "\u0120hosp": 4089,
      "\u0120fully": 4090,
      "edia": 4091,
      "info": 4092,
      "user": 4093,
      "\u0120Dav": 4094,
      "\u0120rise": 4095,
      "\u0120educational": 4096,
      "\u0120Chinese": 4097,
      "\u0120anti": 4098,
      "ico": 4099,
      "\u0120surg": 4100,
      "era": 4101,
      "\u0120cand": 4102,
      "sub": 4103,
      "\u0120Today": 4104,
      "CO": 4105,
      "\u0120email": 4106,
      "\u0120fix": 4107,
      "\u0120running": 4108,
      "\u0120note": 4109,
      "\u0120figure": 4110,
      "\u0120Education": 4111,
      "\u0120currently": 4112,
      "rical": 4113,
      "\u00e2\u0122\u013f.": 4114,
      "\u0120Day": 4115,
      "conn": 4116,
      "\u0120mathemat": 4117,
      "\u0120economy": 4118,
      "\u0120math": 4119,
      "\u0120signs": 4120,
      "\u0120Willi": 4121,
      "\u0120emotional": 4122,
      "ees": 4123,
      "\u0120April": 4124,
      "cohol": 4125,
      "\u0120watch": 4126,
      "ica": 4127,
      "\u0120repe": 4128,
      "izer": 4129,
      "lam": 4130,
      "itutions": 4131,
      "\u0120son": 4132,
      "\u0120instruct": 4133,
      "hest": 4134,
      "\u0120bodies": 4135,
      "\u0120imag": 4136,
      "\u0120enter": 4137,
      "\u0120moving": 4138,
      "\u0120Mc": 4139,
      "\u0120profession": 4140,
      "\u0120map": 4141,
      "\u0120mob": 4142,
      "\u0120risks": 4143,
      "\u0120pet": 4144,
      "\u0120giving": 4145,
      "\u0120wanted": 4146,
      "\u0120worked": 4147,
      "\u0120schol": 4148,
      "\u0120occurs": 4149,
      "\u0120wrote": 4150,
      "([": 4151,
      "len": 4152,
      "AM": 4153,
      "aul": 4154,
      "\u0120Const": 4155,
      "\u0120joint": 4156,
      "ford": 4157,
      "\u0120miles": 4158,
      "\u0120insights": 4159,
      "\u0120comfort": 4160,
      "\u0120lived": 4161,
      "\u0120evolution": 4162,
      "\u0120master": 4163,
      "\u0120Read": 4164,
      "ta": 4165,
      "\u0120woman": 4166,
      "\u0120coming": 4167,
      "\u0120alternative": 4168,
      "\u0120cry": 4169,
      "\u0120specifically": 4170,
      "ION": 4171,
      "\u0120assum": 4172,
      "\u0120Park": 4173,
      "\u0120reality": 4174,
      "\u0120ord": 4175,
      "hab": 4176,
      "\u0120picture": 4177,
      "\u0120False": 4178,
      "\u0120extrem": 4179,
      "\u0120passed": 4180,
      "idden": 4181,
      "Is": 4182,
      "rab": 4183,
      "\u0120Are": 4184,
      "\u0120July": 4185,
      "\u0120factor": 4186,
      "\u0120choice": 4187,
      "\u0120Soci": 4188,
      "\u0120lat": 4189,
      "\u0120capacity": 4190,
      "\u0120Govern": 4191,
      "IL": 4192,
      "ashington": 4193,
      "pped": 4194,
      "\u0120occup": 4195,
      "rief": 4196,
      "\u0120king": 4197,
      "yd": 4198,
      "\u0120cities": 4199,
      "ping": 4200,
      "\u0120gir": 4201,
      "\u0120Cur": 4202,
      "\u0120south": 4203,
      "\u0120intellig": 4204,
      "net": 4205,
      "\u0120City": 4206,
      "\u0120compar": 4207,
      "trans": 4208,
      "\u0120Pat": 4209,
      "EL": 4210,
      "\u0120adjust": 4211,
      "\u0120finding": 4212,
      "\u0120trend": 4213,
      "\u0120contract": 4214,
      "run": 4215,
      "\u0120phen": 4216,
      "\u0120genetic": 4217,
      "\u0120index": 4218,
      "\u0120imagine": 4219,
      "\u0120surpr": 4220,
      "ondon": 4221,
      "\u0120Church": 4222,
      "icip": 4223,
      "craft": 4224,
      "\u0120distribution": 4225,
      "lin": 4226,
      "aur": 4227,
      "\u0120People": 4228,
      "\u0120Understanding": 4229,
      "\u0120rand": 4230,
      "\u0120gold": 4231,
      "ama": 4232,
      "\u0120faith": 4233,
      "\u0120topic": 4234,
      "related": 4235,
      "ename": 4236,
      "\u0120assist": 4237,
      "\u0120weak": 4238,
      "Let": 4239,
      "\u0120citizens": 4240,
      "bal": 4241,
      "\u0120died": 4242,
      "oses": 4243,
      "\u0120societ": 4244,
      "False": 4245,
      "\u0120Test": 4246,
      "\u0120changed": 4247,
      "\u0120famous": 4248,
      "\u0120store": 4249,
      "\u0120Don": 4250,
      "\u0120federal": 4251,
      "\u0120games": 4252,
      "**:": 4253,
      "norm": 4254,
      "\u0120birds": 4255,
      "ham": 4256,
      "anging": 4257,
      ");": 4258,
      "wards": 4259,
      "mark": 4260,
      "\u0120operations": 4261,
      "\u0120illness": 4262,
      "\u0120female": 4263,
      "\u0120High": 4264,
      "board": 4265,
      "ses": 4266,
      "\u0120President": 4267,
      "elcome": 4268,
      "tical": 4269,
      "ching": 4270,
      "\u0120refers": 4271,
      "ias": 4272,
      "\u0120Israel": 4273,
      "\u0120nutri": 4274,
      "ares": 4275,
      "\u0120resistance": 4276,
      "\u0120actual": 4277,
      "\u0120commonly": 4278,
      "\u0120Cong": 4279,
      "\u0120Journal": 4280,
      "\u0120Chapter": 4281,
      "array": 4282,
      "\u0120happens": 4283,
      "\u0120commerc": 4284,
      "\u0120easier": 4285,
      "\u0120regions": 4286,
      "\u0120sexual": 4287,
      "cast": 4288,
      "'.": 4289,
      "\u0120Black": 4290,
      "\u0120Char": 4291,
      "\u0120requirements": 4292,
      "enty": 4293,
      "\u0120placed": 4294,
      "\u0120becoming": 4295,
      "\u0120deeper": 4296,
      "orith": 4297,
      "rid": 4298,
      "\u0120strength": 4299,
      "\u00e0\u00a4": 4300,
      "\u0120atmosp": 4301,
      "\u0120former": 4302,
      "rix": 4303,
      "going": 4304,
      "cember": 4305,
      "\u0120exhib": 4306,
      "\u0120helping": 4307,
      "\u0120experiment": 4308,
      "\u0120rat": 4309,
      "comm": 4310,
      "\u0120Since": 4311,
      "xiety": 4312,
      "\u0120presence": 4313,
      "anish": 4314,
      "\u0120sample": 4315,
      "ructure": 4316,
      "\u0120happen": 4317,
      "ifying": 4318,
      "\u0120price": 4319,
      "\u0120track": 4320,
      "zing": 4321,
      "\u0120pregn": 4322,
      "\u0120populations": 4323,
      "\u0120evol": 4324,
      "\u0120anyone": 4325,
      "do": 4326,
      "\u0120thousands": 4327,
      "\u0120excess": 4328,
      "\u0120identified": 4329,
      "\u0120feeling": 4330,
      "\u0120formed": 4331,
      "\u0120Che": 4332,
      "\u0120monit": 4333,
      "\u0120vital": 4334,
      "\u0120starting": 4335,
      "\u0120drugs": 4336,
      "\u0120sem": 4337,
      "\u0120univers": 4338,
      "\u0120winter": 4339,
      "\u0120changing": 4340,
      "\u0120vary": 4341,
      "\u0120showed": 4342,
      "\u0120urban": 4343,
      "aign": 4344,
      "\u0120reducing": 4345,
      "\u0120rot": 4346,
      "\u0120sharing": 4347,
      "\u0120diabetes": 4348,
      "\u0120prepar": 4349,
      "call": 4350,
      "\u0120remove": 4351,
      "\u0120expression": 4352,
      "\u0120Union": 4353,
      "\u0120fruit": 4354,
      "\u0120defined": 4355,
      "\u0120Mex": 4356,
      "omb": 4357,
      "\u0120Lab": 4358,
      "\u0120foreign": 4359,
      "\u0120counter": 4360,
      "aters": 4361,
      "\u0120opin": 4362,
      "\u0120Spec": 4363,
      "\u0120gets": 4364,
      "\u0120East": 4365,
      "\u0120topics": 4366,
      "\u0120solid": 4367,
      "\u0120label": 4368,
      "\u0120random": 4369,
      "Sh": 4370,
      "dis": 4371,
      "\u0120Tr": 4372,
      "\u0120attract": 4373,
      "eline": 4374,
      "\u0120Law": 4375,
      "\u0120direction": 4376,
      "\u0120unf": 4377,
      "\u0120advanced": 4378,
      "\u0120healthcare": 4379,
      "\u0120eventually": 4380,
      "\u0120tasks": 4381,
      "\u0120mal": 4382,
      "\u0120Vir": 4383,
      "\u0120DNA": 4384,
      "field": 4385,
      "\u0120letter": 4386,
      "gs": 4387,
      "\u0120mouth": 4388,
      "\u0120[]": 4389,
      "ache": 4390,
      "iveness": 4391,
      "\u0120County": 4392,
      "Se": 4393,
      "etime": 4394,
      "\u0120connected": 4395,
      "\u0120comprehens": 4396,
      "\u0120tox": 4397,
      "\u0120wa": 4398,
      "gl": 4399,
      "ouncil": 4400,
      "\u0120feelings": 4401,
      "roy": 4402,
      "\u0120situations": 4403,
      "house": 4404,
      "\u0120ball": 4405,
      "\u0120plans": 4406,
      "\u0120vill": 4407,
      "\u0120advance": 4408,
      "semb": 4409,
      "ovember": 4410,
      "\u0120board": 4411,
      "\u0120filled": 4412,
      "np": 4413,
      "\u0120Jewish": 4414,
      "\u0120mentioned": 4415,
      "\u0120hair": 4416,
      "\u0120immune": 4417,
      "\u0120stim": 4418,
      "\u0120readers": 4419,
      "\u0120Also": 4420,
      "\u0120ready": 4421,
      "\u0120resulting": 4422,
      "\u0120pen": 4423,
      "\u0120unc": 4424,
      "\u0120awareness": 4425,
      "\u0120consumption": 4426,
      "iable": 4427,
      "train": 4428,
      "\u0120Py": 4429,
      "\u0120partners": 4430,
      "\u0120lessons": 4431,
      "\u0120hop": 4432,
      "\u0120glass": 4433,
      "orb": 4434,
      "\u0120despite": 4435,
      "\u0120bond": 4436,
      "lay": 4437,
      "\u0120Washington": 4438,
      "\u0120causing": 4439,
      "\u0120sort": 4440,
      "ightly": 4441,
      "PA": 4442,
      "\u0120pieces": 4443,
      "\u0120\u0120\u0120\u0120\u0120": 4444,
      "\u0120train": 4445,
      "\u0120conclusion": 4446,
      "\u0120separate": 4447,
      "\u0120September": 4448,
      "Some": 4449,
      "\u0120January": 4450,
      "\u0120October": 4451,
      "hips": 4452,
      "\u0120ign": 4453,
      "\u0120Additionally": 4454,
      "\u0120sac": 4455,
      "\u0120lib": 4456,
      "cking": 4457,
      "\u0120Conf": 4458,
      "\u0120Bi": 4459,
      "However": 4460,
      "\u0120blue": 4461,
      "\u0120tele": 4462,
      "\u0120bed": 4463,
      "\u0120playing": 4464,
      "amental": 4465,
      "encing": 4466,
      "\u0120thoughts": 4467,
      "\u0120chance": 4468,
      "\u0120Roman": 4469,
      "ether": 4470,
      "\u0120spect": 4471,
      "\u0120experim": 4472,
      "\u0120dial": 4473,
      "atin": 4474,
      "\u0120eight": 4475,
      "\u0120technique": 4476,
      "iest": 4477,
      "\u0120pref": 4478,
      "ped": 4479,
      "\u0120garden": 4480,
      "\u0120interpret": 4481,
      "rops": 4482,
      "pected": 4483,
      "\u0120believed": 4484,
      "\u0120approaches": 4485,
      "\u0120experienced": 4486,
      "ube": 4487,
      "down": 4488,
      "\u0120infl": 4489,
      "\u0120Aut": 4490,
      "\u0120pick": 4491,
      "\u0120id": 4492,
      "HE": 4493,
      "\u0120vision": 4494,
      "\u0120increases": 4495,
      "\u0120Def": 4496,
      "\u0120Arch": 4497,
      "dat": 4498,
      "\u0120Bo": 4499,
      "\u0120hom": 4500,
      "US": 4501,
      "\u0120gave": 4502,
      "Ad": 4503,
      "\u0120staff": 4504,
      "\u0120row": 4505,
      "rant": 4506,
      "\u0120expert": 4507,
      "rick": 4508,
      "\u0120depending": 4509,
      "\u0120sustainable": 4510,
      "\u0120manage": 4511,
      "ophy": 4512,
      "\u0120medicine": 4513,
      "\u0120error": 4514,
      "OT": 4515,
      "\u0120baby": 4516,
      "\u0120encourage": 4517,
      "All": 4518,
      "\u0120+=": 4519,
      "\u0120cultures": 4520,
      "\u0120Germany": 4521,
      "rome": 4522,
      "\u0120belong": 4523,
      "\u0120compl": 4524,
      "input": 4525,
      "\u0120divid": 4526,
      "\u0120mission": 4527,
      "\u0120London": 4528,
      "\u0120presented": 4529,
      "\u0120outcomes": 4530,
      "OS": 4531,
      "\u0120Feb": 4532,
      "\u0120billion": 4533,
      "\u0120native": 4534,
      "\u0120professor": 4535,
      "iance": 4536,
      "\u0120observed": 4537,
      "\u0120church": 4538,
      "\u0120contrast": 4539,
      "\u0120frequently": 4540,
      "\u0120appears": 4541,
      "\u0120cogn": 4542,
      "\u0120relatively": 4543,
      "\u0120Rel": 4544,
      "PS": 4545,
      "\u0120income": 4546,
      "\u0120classes": 4547,
      "\u0120{}": 4548,
      "\u0120walk": 4549,
      "raction": 4550,
      "ographic": 4551,
      "arser": 4552,
      "lor": 4553,
      "\u0120businesses": 4554,
      "\u0120engage": 4555,
      "\u0120column": 4556,
      "respond": 4557,
      "\u0120wonder": 4558,
      "\u0120majority": 4559,
      "orch": 4560,
      "\u0120conv": 4561,
      "\u0120emissions": 4562,
      "\u0120...": 4563,
      "hand": 4564,
      "fe": 4565,
      "\u0120plays": 4566,
      "\u0120suggests": 4567,
      "resents": 4568,
      "\u0120truth": 4569,
      "gra": 4570,
      "\u0120buy": 4571,
      "\u0120discussion": 4572,
      "\u0120helped": 4573,
      "asion": 4574,
      "\u0120languages": 4575,
      "\u0120Prof": 4576,
      "\u0120files": 4577,
      "alt": 4578,
      "url": 4579,
      "rieved": 4580,
      "\u0120onto": 4581,
      "After": 4582,
      "alle": 4583,
      "\u0120circum": 4584,
      "\u0120records": 4585,
      "Ph": 4586,
      "tered": 4587,
      "\u0120advent": 4588,
      "urance": 4589,
      "Here": 4590,
      "\u0120heavy": 4591,
      "\u0120felt": 4592,
      "ris": 4593,
      "\u0120reference": 4594,
      "\u0120tissue": 4595,
      "\u0120Thus": 4596,
      "\u0120coord": 4597,
      "\u0120sounds": 4598,
      "\u0120creation": 4599,
      "cap": 4600,
      "ressive": 4601,
      "\u010d\u010a\u0120\u0120\u0120\u0120\u0120\u0120\u0120\u0120\u0120\u0120\u0120": 4602,
      "\u0120Bar": 4603,
      "\u0120processing": 4604,
      "antic": 4605,
      "\u0120ap": 4606,
      "no": 4607,
      "\u0120office": 4608,
      "orge": 4609,
      "\u0120transfer": 4610,
      "\u0120internal": 4611,
      "hetic": 4612,
      "\u0120plastic": 4613,
      "\u0120height": 4614,
      "gypt": 4615,
      "\u0120characteristics": 4616,
      "\u0120Australia": 4617,
      "\u0120Cor": 4618,
      "ygen": 4619,
      "flow": 4620,
      "abase": 4621,
      "\u0120option": 4622,
      "\u0120Som": 4623,
      "\u0120format": 4624,
      "\u0120fert": 4625,
      "\u0120river": 4626,
      "\u0120Environment": 4627,
      "UT": 4628,
      "\u0120improved": 4629,
      "\u0120Sur": 4630,
      "\u0120reports": 4631,
      "qual": 4632,
      "cular": 4633,
      "\u0120increasingly": 4634,
      "code": 4635,
      "\u0120\u00e2": 4636,
      "uit": 4637,
      "level": 4638,
      "count": 4639,
      "\u0120prefer": 4640,
      "\u0120Western": 4641,
      "\u0120turned": 4642,
      "\u0120Water": 4643,
      "annel": 4644,
      "\u0120December": 4645,
      "arning": 4646,
      "\u0120motiv": 4647,
      "othes": 4648,
      "\u0120France": 4649,
      "\u0120disorder": 4650,
      "\u0120Because": 4651,
      "\u0120liqu": 4652,
      "\u0120San": 4653,
      "\u0120immediately": 4654,
      "\u0120sav": 4655,
      "icon": 4656,
      "\u0120alcohol": 4657,
      "\u0120notes": 4658,
      "\u0120ensuring": 4659,
      "\u0120General": 4660,
      "\u0120disorders": 4661,
      "\u0120mist": 4662,
      "ributed": 4663,
      "\u0120UK": 4664,
      "\u0120engineering": 4665,
      "\u0120muscle": 4666,
      "action": 4667,
      "\u0120clinical": 4668,
      "\u0120represents": 4669,
      "\u0120classroom": 4670,
      "vision": 4671,
      "\u0120male": 4672,
      "iced": 4673,
      "\u0120industrial": 4674,
      "\u0120gene": 4675,
      "rame": 4676,
      "\u0120race": 4677,
      "\u0120conflict": 4678,
      "\u0120institutions": 4679,
      "ded": 4680,
      "\u0120Sol": 4681,
      "rest": 4682,
      "\u0120colors": 4683,
      "pat": 4684,
      "\u0120Medic": 4685,
      "\u0120generation": 4686,
      "https": 4687,
      "\u0120iron": 4688,
      "\u0120vul": 4689,
      "\u0120algorith": 4690,
      "des": 4691,
      "\u0120diversity": 4692,
      "\u0120anxiety": 4693,
      "\u0120interests": 4694,
      "\u0120enhance": 4695,
      "\u0120dive": 4696,
      "\u0120participants": 4697,
      "\u0120elif": 4698,
      "\u0120House": 4699,
      "\u0120Expl": 4700,
      "icense": 4701,
      "\u0120Society": 4702,
      "\u0120jo": 4703,
      "road": 4704,
      "ilarly": 4705,
      "\u0120release": 4706,
      "ruary": 4707,
      "\u0120college": 4708,
      "being": 4709,
      "\u0120transl": 4710,
      "\u0120homes": 4711,
      "\u0120Data": 4712,
      "\u0120commercial": 4713,
      "\u0120trig": 4714,
      "plot": 4715,
      "ref": 4716,
      "ensions": 4717,
      "\u0120metal": 4718,
      "\u0120maintaining": 4719,
      "\u0120antib": 4720,
      "\u0120Di": 4721,
      "\u0120->": 4722,
      "\u0120approximately": 4723,
      "osystem": 4724,
      "ologists": 4725,
      "\u0120win": 4726,
      "\u0120introduced": 4727,
      "ING": 4728,
      "rations": 4729,
      "\u0120Unit": 4730,
      "\u0120Ang": 4731,
      "\u0120party": 4732,
      "\u0120leads": 4733,
      "\u0120elim": 4734,
      "ails": 4735,
      "\u0120Instead": 4736,
      "\u0120violence": 4737,
      "\u0120religion": 4738,
      "\u0120challenging": 4739,
      "\u0120facilit": 4740,
      "\u0120remov": 4741,
      "\u00c2\u00b0": 4742,
      "object": 4743,
      "\u0120ingred": 4744,
      "\u0120November": 4745,
      "ixt": 4746,
      "aset": 4747,
      "\u0120consequences": 4748,
      "\u0120vast": 4749,
      "azing": 4750,
      "\u0120meeting": 4751,
      "\u0120mo": 4752,
      "ishing": 4753,
      "\u0120Egypt": 4754,
      "oding": 4755,
      "\u0120decades": 4756,
      "\u0120breast": 4757,
      "\u0120Social": 4758,
      "\u0120storage": 4759,
      "\u0120advoc": 4760,
      "acing": 4761,
      "empl": 4762,
      "\u0120clearly": 4763,
      "\u0120temperatures": 4764,
      "\u0120justice": 4765,
      "\u0120freedom": 4766,
      "\u010a\u010a\u0120\u0120\u0120\u0120\u0120\u0120\u0120\u0120\u0120\u0120\u0120": 4767,
      "ords": 4768,
      "icated": 4769,
      "\u0120tour": 4770,
      "\u0120film": 4771,
      "\u0120court": 4772,
      "uses": 4773,
      "\u0120pp": 4774,
      "\u0120aren": 4775,
      "\u0120huge": 4776,
      "\u0120nutrition": 4777,
      "\u0120speech": 4778,
      "\u0120territ": 4779,
      "eding": 4780,
      "\u0120Its": 4781,
      "\u0120focused": 4782,
      "\u0120insect": 4783,
      "\u0120units": 4784,
      "\u0120multi": 4785,
      "\u0120practical": 4786,
      "\u0120See": 4787,
      "\u0120milk": 4788,
      "\u0120buildings": 4789,
      "\u0120Moreover": 4790,
      "\u0120independent": 4791,
      "Imagine": 4792,
      "leg": 4793,
      "const": 4794,
      "\u0120career": 4795,
      "LE": 4796,
      "akers": 4797,
      "\u0120engaging": 4798,
      "\u0120strategy": 4799,
      "icial": 4800,
      "\u0120emotions": 4801,
      "tee": 4802,
      "\u0120pric": 4803,
      "\u0120assessment": 4804,
      "UR": 4805,
      "sol": 4806,
      "enth": 4807,
      "ux": 4808,
      "Another": 4809,
      "box": 4810,
      "\u0120seek": 4811,
      "\u0120batter": 4812,
      "ortunately": 4813,
      "\u0120statement": 4814,
      "omas": 4815,
      "\u0120Mat": 4816,
      "?\"": 4817,
      "cript": 4818,
      "\u0120replace": 4819,
      "Type": 4820,
      "gin": 4821,
      "\u0120Furthermore": 4822,
      "\u0120Sch": 4823,
      "\u0120excell": 4824,
      "\u0120keeping": 4825,
      "oma": 4826,
      "\u0120Rev": 4827,
      "Mod": 4828,
      "zer": 4829,
      "vironments": 4830,
      "\u0120dri": 4831,
      "ibilities": 4832,
      "\u0120creative": 4833,
      "\u0120cycle": 4834,
      "\u0120minor": 4835,
      "\u0120studying": 4836,
      "\u0120Public": 4837,
      "\u0120treated": 4838,
      "erved": 4839,
      "\u0120settings": 4840,
      "\u0120Ob": 4841,
      "itage": 4842,
      "\u0120extremely": 4843,
      "\u0120phenomen": 4844,
      "\u0120experts": 4845,
      "\u0120Association": 4846,
      "shape": 4847,
      "\u0120Av": 4848,
      "join": 4849,
      "atically": 4850,
      "\u0120continues": 4851,
      "aint": 4852,
      "spec": 4853,
      "\u0120interested": 4854,
      "\u0120correspond": 4855,
      "\u0120primarily": 4856,
      "\u0120cook": 4857,
      "\u0120conducted": 4858,
      "\u0120depression": 4859,
      "\u0120collabor": 4860,
      "tra": 4861,
      "ctor": 4862,
      "\u0120pret": 4863,
      "\u0120Pal": 4864,
      "mary": 4865,
      "\u0120electricity": 4866,
      "\u0120survey": 4867,
      "db": 4868,
      "\u0120bottom": 4869,
      "\u0120star": 4870,
      "\u0120ju": 4871,
      "\u0120trou": 4872,
      "\u0120Plan": 4873,
      "\u0120isol": 4874,
      "\u0120hear": 4875,
      "\u0120trib": 4876,
      "ii": 4877,
      "\u0120campaign": 4878,
      "\u0120wis": 4879,
      "\u0120organic": 4880,
      "\u0120pul": 4881,
      "\u0120Therefore": 4882,
      "enses": 4883,
      "\u0120flex": 4884,
      "][": 4885,
      "\u0120Har": 4886,
      "\u0120notice": 4887,
      "then": 4888,
      "\u0120widely": 4889,
      "\u0120efficiency": 4890,
      "\u0120carried": 4891,
      "iverse": 4892,
      "\u0120dram": 4893,
      "\u0120prepared": 4894,
      "DA": 4895,
      "\u0120Why": 4896,
      "\u0120spot": 4897,
      "Why": 4898,
      "gment": 4899,
      "inn": 4900,
      "\u0120legis": 4901,
      "\u0120generations": 4902,
      "\u0120sand": 4903,
      "\u0120framew": 4904,
      "\u0120grant": 4905,
      "poses": 4906,
      "\u0120bud": 4907,
      "ressed": 4908,
      "\u0120Development": 4909,
      "\u0120Green": 4910,
      "\u0120secret": 4911,
      "\u0120Bra": 4912,
      "\u0120Writ": 4913,
      "\u0120bone": 4914,
      "rum": 4915,
      "pen": 4916,
      "result": 4917,
      "rep": 4918,
      "\u0120highest": 4919,
      "eria": 4920,
      "\u0120spring": 4921,
      "\u0120synt": 4922,
      "\u0120wall": 4923,
      "\u0120Gra": 4924,
      "\u0120combination": 4925,
      "\u0120drive": 4926,
      "\u0120pros": 4927,
      "\u0120string": 4928,
      "\u0120household": 4929,
      "\u0120extract": 4930,
      "\u0120Japanese": 4931,
      "\u0120favorite": 4932,
      "da": 4933,
      "\u0120AN": 4934,
      "\u0120moved": 4935,
      "\u0120artists": 4936,
      "\u0120movements": 4937,
      "\u0120invent": 4938,
      "\u0120perspective": 4939,
      "\u0120performed": 4940,
      "inger": 4941,
      "\u0120familiar": 4942,
      "\u0120thick": 4943,
      "\u0120played": 4944,
      "\u0120Mor": 4945,
      "lege": 4946,
      "\u0120recommended": 4947,
      "They": 4948,
      "\u0120conservation": 4949,
      "\u0120Found": 4950,
      "\u0120chronic": 4951,
      "output": 4952,
      "\u0120operation": 4953,
      "\u0120UN": 4954,
      "\u0120spiritual": 4955,
      "\u0120song": 4956,
      "\u0120spent": 4957,
      "orial": 4958,
      "\u0120fundamental": 4959,
      "\u0120gather": 4960,
      "top": 4961,
      "\u0120seven": 4962,
      "\u0120Greek": 4963,
      "ste": 4964,
      "ologist": 4965,
      "iling": 4966,
      "\u0120William": 4967,
      "emic": 4968,
      "\u0120worldwide": 4969,
      "oyal": 4970,
      "\u0120library": 4971,
      "\u0120meant": 4972,
      "\u0120signal": 4973,
      "\u0120responsibility": 4974,
      "\u0120choices": 4975,
      "\u0120saying": 4976,
      "\u0120beliefs": 4977,
      "\u0120environments": 4978,
      "\u0120fine": 4979,
      "\u0120cultiv": 4980,
      "\u0120volume": 4981,
      "\u0120Retrieved": 4982,
      "\u0120oxygen": 4983,
      "\u0120conver": 4984,
      "reed": 4985,
      "\u0120vulner": 4986,
      "\u0120suppl": 4987,
      "SA": 4988,
      "\u0120ple": 4989,
      "\u0120adding": 4990,
      "\u0120professionals": 4991,
      "\u0120consult": 4992,
      "\u0120covered": 4993,
      "\u0120Mr": 4994,
      "\u0120doub": 4995,
      "\u0120Human": 4996,
      "\u0120failure": 4997,
      "\u0120kid": 4998,
      "\u0120Program": 4999,
      "\u0120properly": 5000,
      "osen": 5001,
      "\u0120mel": 5002,
      "\u0120poly": 5003,
      "\u0120external": 5004,
      "process": 5005,
      "\u0120university": 5006,
      "\u0120remind": 5007,
      "\u0120pal": 5008,
      "\u0120incred": 5009,
      "\u0120dra": 5010,
      "\u0120syn": 5011,
      "igure": 5012,
      "\u0120\u0120\u0120\u0120\u0120\u0120": 5013,
      "isation": 5014,
      "\u0120landscape": 5015,
      "sec": 5016,
      "\u0120significance": 5017,
      "imal": 5018,
      "\u0120served": 5019,
      "cal": 5020,
      "\u0120embra": 5021,
      "\u0120ST": 5022,
      "\u00e2\u0122\u013f,": 5023,
      "\u0120happened": 5024,
      "\u0120Organ": 5025,
      "\u0120arm": 5026,
      "\u0120degrees": 5027,
      "image": 5028,
      "\u0120impacts": 5029,
      "ocal": 5030,
      "http": 5031,
      "\u0120articles": 5032,
      "\u0120item": 5033,
      "\u0120centuries": 5034,
      "\u0120seeds": 5035,
      "oted": 5036,
      "\u0120James": 5037,
      "\u0120title": 5038,
      "dim": 5039,
      "\u0120lesson": 5040,
      "roph": 5041,
      "\u0120advice": 5042,
      "rence": 5043,
      "\u0120cast": 5044,
      "\u0120examine": 5045,
      "\u0120dogs": 5046,
      "\u0120seed": 5047,
      "\u0120Islam": 5048,
      "\u0120plot": 5049,
      "oke": 5050,
      "\u0120generate": 5051,
      "oper": 5052,
      "rating": 5053,
      "\u0120carefully": 5054,
      "ingly": 5055,
      "En": 5056,
      "\u0120papers": 5057,
      "dent": 5058,
      "\u0120samples": 5059,
      "\u0120upper": 5060,
      "\u0120Congress": 5061,
      "\u0120origin": 5062,
      "rics": 5063,
      "\u0120Using": 5064,
      "\u0120ocean": 5065,
      "\u0120agg": 5066,
      "\u0120highlight": 5067,
      "\u0120Mark": 5068,
      "\u0120smart": 5069,
      "\u0120mere": 5070,
      "\u0120Spanish": 5071,
      "label": 5072,
      "\u0120letters": 5073,
      "icians": 5074,
      "\u0120round": 5075,
      "\u0120closely": 5076,
      "\u0120component": 5077,
      "\u0120screen": 5078,
      "\u0120array": 5079,
      "Ind": 5080,
      "\u0120Every": 5081,
      "apping": 5082,
      "\u0120mer": 5083,
      "\u0120satis": 5084,
      "\u0120containing": 5085,
      "otal": 5086,
      "\u0120finally": 5087,
      "\u0120volunt": 5088,
      "\u0120roll": 5089,
      "\u0120figures": 5090,
      "\u0120send": 5091,
      "\u0120wealth": 5092,
      "\u0120Internet": 5093,
      "\u0120previously": 5094,
      "ulf": 5095,
      "\u0120February": 5096,
      "\u0120Air": 5097,
      "\u0120Food": 5098,
      "\u0120Mary": 5099,
      "za": 5100,
      "\u0120potentially": 5101,
      "\u0120impl": 5102,
      "\u0120rul": 5103,
      "othing": 5104,
      "anch": 5105,
      "\u0120ecosystem": 5106,
      "())": 5107,
      "\u0120adop": 5108,
      "\u0120amounts": 5109,
      "lines": 5110,
      "'),": 5111,
      "\u0120Off": 5112,
      "last": 5113,
      "().": 5114,
      "\u0120networks": 5115,
      "\u0120inflamm": 5116,
      "\u0120looks": 5117,
      "\u0120released": 5118,
      "\u0120Sub": 5119,
      "anges": 5120,
      "Cont": 5121,
      "\u0120err": 5122,
      "map": 5123,
      "\u0120referred": 5124,
      "\u0120describe": 5125,
      "essage": 5126,
      "Data": 5127,
      "\u0120injury": 5128,
      "\u0120flood": 5129,
      "rich": 5130,
      "unk": 5131,
      "\u0120purposes": 5132,
      "Col": 5133,
      "((": 5134,
      "RI": 5135,
      "\u0120vegetables": 5136,
      "CC": 5137,
      "active": 5138,
      "\u0120owners": 5139,
      "ball": 5140,
      "\u0120https": 5141,
      "\u0120destroy": 5142,
      "\u0120confirm": 5143,
      "pathy": 5144,
      "\u0120La": 5145,
      "\u0120aid": 5146,
      "\u0120nuclear": 5147,
      "\u0120Both": 5148,
      "\u0120Mal": 5149,
      "\u0120linked": 5150,
      "\u0120Lord": 5151,
      "\u0120jobs": 5152,
      "\u0120Vol": 5153,
      "\u0120pu": 5154,
      "\u0120seeking": 5155,
      "eli": 5156,
      "ollow": 5157,
      "\u0120pages": 5158,
      "\u0120Mich": 5159,
      "estion": 5160,
      "\u0120accurate": 5161,
      "write": 5162,
      "\u0120advantage": 5163,
      "wargs": 5164,
      "\u0120president": 5165,
      "\u0120ourselves": 5166,
      "rm": 5167,
      "\u0120god": 5168,
      "\u0120tum": 5169,
      "\u0120leaving": 5170,
      "\u0120radio": 5171,
      "stream": 5172,
      "\u0120straight": 5173,
      "\u0120traditions": 5174,
      "\u0120convent": 5175,
      "\u0120meat": 5176,
      "\u0120dangerous": 5177,
      "\u0120removed": 5178,
      "\u0120surgery": 5179,
      "nic": 5180,
      "\u0120capable": 5181,
      "\u0120battle": 5182,
      "\u0120estimated": 5183,
      "\u0120formation": 5184,
      "\u0120ongoing": 5185,
      "\u0120credit": 5186,
      "ida": 5187,
      "\u0120promoting": 5188,
      "\u0120comment": 5189,
      "\u0120roots": 5190,
      "\u0120roles": 5191,
      "\u0120explained": 5192,
      "\u0120tail": 5193,
      "\u0120Children": 5194,
      "That": 5195,
      "\u0120maybe": 5196,
      "itness": 5197,
      "bi": 5198,
      "\u0120mostly": 5199,
      "\u0120radiation": 5200,
      "\u0120reb": 5201,
      "\u0120enable": 5202,
      "inations": 5203,
      "\u0120possess": 5204,
      "\u0120Students": 5205,
      "\u0120pollution": 5206,
      "\u0120sou": 5207,
      "\u0120sets": 5208,
      ".__": 5209,
      "which": 5210,
      "inent": 5211,
      "From": 5212,
      "\u0120relative": 5213,
      "\u0120otherwise": 5214,
      "\u0120apart": 5215,
      "ificial": 5216,
      "\u0120horm": 5217,
      "\u0120grade": 5218,
      "\u0120subjects": 5219,
      "\u0120push": 5220,
      "\u0120recognize": 5221,
      "\u0120square": 5222,
      "rapy": 5223,
      "\u0120Sy": 5224,
      "\u0120vess": 5225,
      "body": 5226,
      "ipped": 5227,
      "\u0120guidelines": 5228,
      "CH": 5229,
      "No": 5230,
      "anguage": 5231,
      "\u0120victim": 5232,
      "\u0120neuro": 5233,
      "\u0120charg": 5234,
      "\u0120Ev": 5235,
      "\u0120AD": 5236,
      "\u0120Supp": 5237,
      "asure": 5238,
      "\u0120phase": 5239,
      "[:": 5240,
      "\u0120upd": 5241,
      "\u0120College": 5242,
      "ogue": 5243,
      "ellect": 5244,
      "\u0120revolution": 5245,
      "\u0120eggs": 5246,
      "MS": 5247,
      "'m": 5248,
      "\u0120rain": 5249,
      "\u0120determined": 5250,
      "aker": 5251,
      "\u0120tal": 5252,
      "\u0120secure": 5253,
      "\u0120argument": 5254,
      "\u0120Asia": 5255,
      "aughter": 5256,
      "](": 5257,
      "\u0120Remember": 5258,
      "\u0120David": 5259,
      "\u0120Phys": 5260,
      "\u0120Republic": 5261,
      "otic": 5262,
      "\u0120faced": 5263,
      "\u0120atmosphere": 5264,
      "\u0120Project": 5265,
      "\u0120Fore": 5266,
      "\u0120motor": 5267,
      "roc": 5268,
      "\u0120vitamin": 5269,
      "\u0120pun": 5270,
      "ij": 5271,
      "\u0120Web": 5272,
      "ypes": 5273,
      "\u0120voice": 5274,
      "ensor": 5275,
      "\u0120combined": 5276,
      "\u0120nor": 5277,
      "\u0120definition": 5278,
      "\u0120treatments": 5279,
      "\u0120Ref": 5280,
      "arrow": 5281,
      ".;": 5282,
      "\u0120farmers": 5283,
      "\u0120genes": 5284,
      "\u0120infections": 5285,
      "\u0120Imagine": 5286,
      "uted": 5287,
      "\u0120sports": 5288,
      "\u0120technical": 5289,
      "\u0120intelligence": 5290,
      "\u0120args": 5291,
      "Equal": 5292,
      "\u0120monitoring": 5293,
      "\u0120Make": 5294,
      "\u0120grand": 5295,
      "cs": 5296,
      "\u0120Prot": 5297,
      "\u0120circumst": 5298,
      "\u0120Council": 5299,
      "\u0120appreciate": 5300,
      "\u0120earn": 5301,
      "\u0120supported": 5302,
      "\u0120reaction": 5303,
      "\u0120Met": 5304,
      "faces": 5305,
      "hist": 5306,
      "\u0120facts": 5307,
      "Pl": 5308,
      "\u0120taught": 5309,
      "\u0120Have": 5310,
      "\u0120Bel": 5311,
      "\u0120Tur": 5312,
      "\u0120frequency": 5313,
      "\u0120dict": 5314,
      "Many": 5315,
      "\u0120annual": 5316,
      "\u0120manufacture": 5317,
      "reet": 5318,
      "riage": 5319,
      "lig": 5320,
      "\u0120worry": 5321,
      "\u0120involving": 5322,
      "iled": 5323,
      "\u0120periods": 5324,
      "\u0120Alex": 5325,
      "\u0120official": 5326,
      "rastructure": 5327,
      "\u0120looked": 5328,
      "riculum": 5329,
      "\u0120Life": 5330,
      "\u0120faster": 5331,
      "\u0120noted": 5332,
      "well": 5333,
      "\u0120kn": 5334,
      "CT": 5335,
      "\u0120barri": 5336,
      "\u0120whom": 5337,
      "\u0120Dem": 5338,
      "\u0120collaboration": 5339,
      "\u0120offered": 5340,
      "\u0120knew": 5341,
      "\u0120Cre": 5342,
      "ald": 5343,
      "\u0120spend": 5344,
      "First": 5345,
      "zy": 5346,
      "\u0120cognitive": 5347,
      "\u0120talking": 5348,
      "hent": 5349,
      "pping": 5350,
      "\u0120authority": 5351,
      "asp": 5352,
      "\u0120hour": 5353,
      "\u0120ultimately": 5354,
      "\u0120nations": 5355,
      "\u0120helpful": 5356,
      "\u0120renew": 5357,
      "ndrome": 5358,
      "\u0120slightly": 5359,
      "\u0120answers": 5360,
      "\u0120please": 5361,
      "\u0120Hel": 5362,
      "\u0120charge": 5363,
      "\u0120hearing": 5364,
      "lo": 5365,
      "\u0120discrim": 5366,
      "python": 5367,
      "\u0120align": 5368,
      "\u0120showing": 5369,
      "\u0120George": 5370,
      "\u0120completed": 5371,
      "\u0120grass": 5372,
      "\u0120Bas": 5373,
      "essor": 5374,
      "\u0120killed": 5375,
      "\u0120scholars": 5376,
      "\u0120lung": 5377,
      "\u0120Island": 5378,
      "\u0120mit": 5379,
      "\u0120hit": 5380,
      "icks": 5381,
      "\u0120ideal": 5382,
      "\u0120tiny": 5383,
      "isher": 5384,
      "uilding": 5385,
      "\u0120consid": 5386,
      "\u0120existence": 5387,
      "\u0120reached": 5388,
      "\u0120Museum": 5389,
      "\u0120stream": 5390,
      "\u0120cere": 5391,
      "arp": 5392,
      "\u0120Histor": 5393,
      "yles": 5394,
      "\u0120Opt": 5395,
      "cell": 5396,
      "\u0120Class": 5397,
      "****": 5398,
      "\u0120Get": 5399,
      "ns": 5400,
      "ario": 5401,
      "iration": 5402,
      "\u0120Port": 5403,
      "uster": 5404,
      "\u0120substant": 5405,
      "return": 5406,
      "\u0120Fam": 5407,
      "astern": 5408,
      "OD": 5409,
      "\u0120description": 5410,
      "\u0120vent": 5411,
      "\u0120excellent": 5412,
      "\u0120cris": 5413,
      "ycl": 5414,
      "\u00c3\u00a1": 5415,
      "\u0120truly": 5416,
      "\u0120perspectives": 5417,
      "\u0120improving": 5418,
      "\u0120Add": 5419,
      "\u0120salt": 5420,
      "\u0120reduction": 5421,
      "sum": 5422,
      "\u0120smooth": 5423,
      "ossible": 5424,
      "Our": 5425,
      "pred": 5426,
      "\u0120Set": 5427,
      "\u0120maximum": 5428,
      "\u0120tooth": 5429,
      "\u0120Sun": 5430,
      "AB": 5431,
      "\u0120island": 5432,
      "\u0120proposed": 5433,
      "alysis": 5434,
      "lete": 5435,
      "inant": 5436,
      "\u0120die": 5437,
      "making": 5438,
      "iant": 5439,
      "ander": 5440,
      "umber": 5441,
      "\u0120traffic": 5442,
      "\u0120knows": 5443,
      "\u0120enab": 5444,
      "\u0120Up": 5445,
      "\u0120PhD": 5446,
      "\u0120Budd": 5447,
      "crete": 5448,
      "According": 5449,
      "\u0120yield": 5450,
      "\u0120exposed": 5451,
      "\u0120obvious": 5452,
      "\u0120brief": 5453,
      "\u0120kept": 5454,
      "\u0120Paul": 5455,
      "\u0120glob": 5456,
      "\u0120Sam": 5457,
      "\u0120Rober": 5458,
      "\u0120HIV": 5459,
      "\u0120phone": 5460,
      "\u0120bank": 5461,
      "\u0120candid": 5462,
      "wood": 5463,
      "\u0120electrical": 5464,
      "\u0120Ben": 5465,
      "\u0120layers": 5466,
      "pass": 5467,
      "Field": 5468,
      "\u0120particles": 5469,
      "\u0120\u00d0": 5470,
      "\u0120Sk": 5471,
      "normal": 5472,
      "\u0120interview": 5473,
      "lib": 5474,
      "\u0120Such": 5475,
      "but": 5476,
      "\u0120Tex": 5477,
      "\u0120chemicals": 5478,
      "\u0120kinds": 5479,
      "long": 5480,
      "ested": 5481,
      "\u0120solve": 5482,
      "\u0120acknow": 5483,
      "ria": 5484,
      "\u0120amazing": 5485,
      "\u0120deliver": 5486,
      "\u0120exchange": 5487,
      "ya": 5488,
      "\u0120raised": 5489,
      "icit": 5490,
      "\u0120parties": 5491,
      "\u0120intended": 5492,
      "\u0120Cath": 5493,
      "fit": 5494,
      "\u0120Out": 5495,
      "\u0120operating": 5496,
      "TS": 5497,
      "\u0120Cult": 5498,
      "\u0120sufficient": 5499,
      "\u0120discipl": 5500,
      "\u0120muscles": 5501,
      "\u0120remained": 5502,
      "\u0120goods": 5503,
      "\u0120flowers": 5504,
      "ague": 5505,
      "\u0120offering": 5506,
      "More": 5507,
      "\u0120certainly": 5508,
      "\u0120Mount": 5509,
      "\u0120drawing": 5510,
      "\u0120coal": 5511,
      "\u0120firm": 5512,
      "\u0120sche": 5513,
      "\u0120Arab": 5514,
      "ago": 5515,
      "\u0120List": 5516,
      "\u0120ban": 5517,
      "json": 5518,
      "Have": 5519,
      "\u0120Government": 5520,
      "\u0120indicate": 5521,
      "\u0120motion": 5522,
      "oughly": 5523,
      "coming": 5524,
      "\u0120immig": 5525,
      "gi": 5526,
      "\u0120subsequ": 5527,
      "step": 5528,
      "New": 5529,
      "\u0120computers": 5530,
      "nes": 5531,
      "\u0120extreme": 5532,
      "\u0120regional": 5533,
      "\u0120selected": 5534,
      "\u0120themes": 5535,
      "\u0120governments": 5536,
      "\u0120marg": 5537,
      "\u0120Service": 5538,
      "stract": 5539,
      "\u0120raw": 5540,
      "ras": 5541,
      "\u0120views": 5542,
      "\u0120regul": 5543,
      "win": 5544,
      "\u0120Keep": 5545,
      "tenance": 5546,
      "\u0120affects": 5547,
      "\u0120\u00e2\u0122\u00a6": 5548,
      "\u0120\u00c3": 5549,
      "\u0120Middle": 5550,
      "eer": 5551,
      "\u0120depends": 5552,
      "\u0120liquid": 5553,
      "\u0120sett": 5554,
      "arsh": 5555,
      "\u0120Ser": 5556,
      "\u0120hyper": 5557,
      "\u0120follows": 5558,
      "ville": 5559,
      "clusive": 5560,
      "\u0120double": 5561,
      "\u0120flat": 5562,
      "\u0120Jews": 5563,
      "icious": 5564,
      "\u0120Rich": 5565,
      "inding": 5566,
      "\u0120closer": 5567,
      "ny": 5568,
      "\u0120youth": 5569,
      "'],": 5570,
      "\u0120resist": 5571,
      "ado": 5572,
      "\u0120Central": 5573,
      "\u0120fruits": 5574,
      "\u0120ship": 5575,
      "DF": 5576,
      "cers": 5577,
      "\u0120regularly": 5578,
      "Key": 5579,
      "\u0120funding": 5580,
      "aturally": 5581,
      "\u0120dro": 5582,
      "---": 5583,
      "\u0120nutrients": 5584,
      "itors": 5585,
      "(),": 5586,
      "\u0120happy": 5587,
      "what": 5588,
      "\u0120appoint": 5589,
      "\u0120conclud": 5590,
      "ictionary": 5591,
      "....": 5592,
      "\u0120creates": 5593,
      "\u0120internet": 5594,
      "\u0120edge": 5595,
      "\u0120frag": 5596,
      "cest": 5597,
      "\u0120returned": 5598,
      "params": 5599,
      "\u0120spaces": 5600,
      "\u0120fort": 5601,
      "conomic": 5602,
      "\u0120wasn": 5603,
      "\u0120texts": 5604,
      "\u0120handle": 5605,
      "group": 5606,
      "\u0120thin": 5607,
      "\u0120tips": 5608,
      "\u0120Pract": 5609,
      "\u0120discovery": 5610,
      "\u0120mort": 5611,
      "rows": 5612,
      "\u0120suggested": 5613,
      "\u0120fab": 5614,
      "\u0120bird": 5615,
      "\u0120rein": 5616,
      "\u0120asking": 5617,
      "\u0120cert": 5618,
      "\u0120kill": 5619,
      "\u0120Court": 5620,
      "roid": 5621,
      "\u0120IN": 5622,
      "stood": 5623,
      "acific": 5624,
      "\u0120hospital": 5625,
      "\u0120nerv": 5626,
      "while": 5627,
      "CE": 5628,
      "den": 5629,
      "\u0120mainly": 5630,
      "\u0120hidden": 5631,
      "\u0120informed": 5632,
      "UN": 5633,
      "\u0120begins": 5634,
      "\u0120innovative": 5635,
      "\u0120dedicated": 5636,
      "eless": 5637,
      "ifies": 5638,
      "\u0120Direct": 5639,
      "band": 5640,
      "\u0120medium": 5641,
      "\u0120investment": 5642,
      "\u0120procedure": 5643,
      "orking": 5644,
      "\u0120rapidly": 5645,
      "\u0120AI": 5646,
      "\u0120Mexico": 5647,
      "\u0120abuse": 5648,
      "\u0120careful": 5649,
      "Gen": 5650,
      "\u0120Civil": 5651,
      "ogether": 5652,
      "nam": 5653,
      "\u0120proteins": 5654,
      "\u0120tried": 5655,
      "\u0120waters": 5656,
      "\u0120forced": 5657,
      "uls": 5658,
      "\u0120absol": 5659,
      "\u0120documents": 5660,
      "\u0120doll": 5661,
      "onic": 5662,
      "\u0120Learning": 5663,
      "\u0120\u00ce": 5664,
      "\u0120Second": 5665,
      "ounced": 5666,
      "parent": 5667,
      "\u0120disapp": 5668,
      "othe": 5669,
      "\u0120storm": 5670,
      "\u0120Latin": 5671,
      "plicated": 5672,
      "wid": 5673,
      "ears": 5674,
      "\u0120clim": 5675,
      "\u0120diagnosis": 5676,
      "\u0120southern": 5677,
      "\u0120toxic": 5678,
      "\u0120Britain": 5679,
      "valid": 5680,
      "\u0120bright": 5681,
      "\u0120supporting": 5682,
      "\u0120White": 5683,
      "\u0120Hen": 5684,
      "\u0120Att": 5685,
      "\u0120moist": 5686,
      "\u0120circumstances": 5687,
      "\u0120client": 5688,
      "\u0120fluid": 5689,
      "weight": 5690,
      "\u0120occurred": 5691,
      "\u0120stone": 5692,
      "\u0120behaviors": 5693,
      "\u0120leadership": 5694,
      "\u0120procedures": 5695,
      "post": 5696,
      "\u0120prepare": 5697,
      "\u00c4\u0123": 5698,
      "html": 5699,
      "\u0120window": 5700,
      "aks": 5701,
      "\u0120leader": 5702,
      "\u0120stars": 5703,
      "istan": 5704,
      "ifications": 5705,
      "\u0120foundation": 5706,
      "\u0120consistent": 5707,
      "\u0120Dist": 5708,
      "anged": 5709,
      "\u0120manner": 5710,
      "\u0120millions": 5711,
      "\u0120suitable": 5712,
      "\u0120Two": 5713,
      "rust": 5714,
      "\u0120intellect": 5715,
      "\u0120sector": 5716,
      "\u0120brother": 5717,
      "ilience": 5718,
      "\u0120selection": 5719,
      "\u0120poet": 5720,
      "\u0120lies": 5721,
      "\u0120Nav": 5722,
      "\u0120mode": 5723,
      "\u0120yellow": 5724,
      "free": 5725,
      "\u0120employees": 5726,
      "\u0120pictures": 5727,
      "\u0120!": 5728,
      "\u0120station": 5729,
      "\u0120infrastructure": 5730,
      "\u0120Muslim": 5731,
      "\u0120loved": 5732,
      "\u0120Mac": 5733,
      "instance": 5734,
      "doc": 5735,
      "\u0120accompl": 5736,
      "api": 5737,
      "\u0120morning": 5738,
      "\u0120Net": 5739,
      "\u0120pretty": 5740,
      "\u0120era": 5741,
      "herent": 5742,
      "\u0120NAS": 5743,
      "\u0120Space": 5744,
      "dden": 5745,
      "sk": 5746,
      "\u0120domestic": 5747,
      "\u0120biological": 5748,
      "\u0120ingredients": 5749,
      "\u0120underlying": 5750,
      "rec": 5751,
      "\u0120explan": 5752,
      "\u0120skill": 5753,
      "\u0120decide": 5754,
      "atever": 5755,
      "\u0120vehicle": 5756,
      "\u0120join": 5757,
      "\u0120match": 5758,
      "\u0120interactions": 5759,
      "\u0120bow": 5760,
      "\u0120northern": 5761,
      "yp": 5762,
      "\u0120Old": 5763,
      "\u0120formal": 5764,
      "method": 5765,
      "\u0120du": 5766,
      "\u0120settle": 5767,
      "\u0120drop": 5768,
      "\u0120instrument": 5769,
      "\u0120prices": 5770,
      "\u0120collected": 5771,
      "\u0120thor": 5772,
      "urity": 5773,
      "\u0120pray": 5774,
      "HO": 5775,
      "bed": 5776,
      "\u0120wear": 5777,
      "\u0120Texas": 5778,
      "lick": 5779,
      "\u0120walls": 5780,
      "ools": 5781,
      "\u0120obst": 5782,
      "\u0120guidance": 5783,
      "\u0120Cam": 5784,
      "\u0120instruction": 5785,
      "\u0120Post": 5786,
      "osite": 5787,
      "Although": 5788,
      "\u0120elev": 5789,
      "\u0120delve": 5790,
      "\u0120neighb": 5791,
      "ician": 5792,
      "\u0120wet": 5793,
      "\u0120harmful": 5794,
      "\u0120persist": 5795,
      "\u0120appearance": 5796,
      "\u0120recorded": 5797,
      "\u0120virtual": 5798,
      "berg": 5799,
      "\u0120oral": 5800,
      "verty": 5801,
      "gal": 5802,
      "\u0120click": 5803,
      "\u0120Technology": 5804,
      "filename": 5805,
      "\u0120snow": 5806,
      "\u0120haz": 5807,
      "\u0120corpor": 5808,
      "\u0120poverty": 5809,
      "IR": 5810,
      "\u0120variable": 5811,
      "exp": 5812,
      "rolog": 5813,
      "\u0120sudden": 5814,
      "\u0120extent": 5815,
      "\u0120Je": 5816,
      "\u0120database": 5817,
      "rian": 5818,
      "IG": 5819,
      "Name": 5820,
      "Us": 5821,
      "\u0120remark": 5822,
      "\u0120links": 5823,
      "nel": 5824,
      "la": 5825,
      "CS": 5826,
      "\u0120Management": 5827,
      "\u0120driving": 5828,
      "\u0120Inc": 5829,
      "wer": 5830,
      "mas": 5831,
      "\u0120fostering": 5832,
      "\u0120Que": 5833,
      "\u0120facilities": 5834,
      "ups": 5835,
      "\u0120courses": 5836,
      "\u0120Google": 5837,
      "\u0120resol": 5838,
      "\u0120Another": 5839,
      "\u0120foss": 5840,
      "\u0120('": 5841,
      "\u0120moral": 5842,
      "\u0120Design": 5843,
      "ancer": 5844,
      "\u0120drinking": 5845,
      "\u0120west": 5846,
      "\u0120wait": 5847,
      "assertEqual": 5848,
      "\u0120discussed": 5849,
      "\u0120feedback": 5850,
      "\u0120emergency": 5851,
      "uing": 5852,
      "rates": 5853,
      "omic": 5854,
      "\u0120tro": 5855,
      "\u0120depth": 5856,
      "\u0120sensitive": 5857,
      "\u0120strengthen": 5858,
      "\u0120amb": 5859,
      "\u0120serves": 5860,
      "\u0120detailed": 5861,
      "\u0120blog": 5862,
      "\u0120Mart": 5863,
      "\u0120entirely": 5864,
      "\u0120communicate": 5865,
      "\u0120filter": 5866,
      "iform": 5867,
      "De": 5868,
      "\u0120minimum": 5869,
      "\u0120Miss": 5870,
      "\u0120cutting": 5871,
      "\u0120listen": 5872,
      "\u0120presc": 5873,
      "\u0120Thomas": 5874,
      "check": 5875,
      "\u0120fill": 5876,
      "\u0120Stand": 5877,
      "\u0120Like": 5878,
      "\u0120define": 5879,
      "\u0120struggle": 5880,
      "Des": 5881,
      "\u0120sides": 5882,
      "\u0120Inf": 5883,
      "Not": 5884,
      "\u0120Time": 5885,
      "\u0120institution": 5886,
      "\u0120introduction": 5887,
      "\u0120recovery": 5888,
      "osa": 5889,
      "\u0120lots": 5890,
      "\u0120chain": 5891,
      "\u0120Sal": 5892,
      "\u0120examining": 5893,
      "\u0120messages": 5894,
      "\u0120touch": 5895,
      "\u0120sen": 5896,
      "\u0120Bible": 5897,
      "\u0120agricultural": 5898,
      "\u0120Br": 5899,
      "\u0120shel": 5900,
      "\u0120girls": 5901,
      "\u0120perman": 5902,
      "version": 5903,
      "scale": 5904,
      "\u0120Python": 5905,
      "cel": 5906,
      "that": 5907,
      "kes": 5908,
      "\u0120starts": 5909,
      "arant": 5910,
      "\u0120shif": 5911,
      "\u0120claims": 5912,
      "\u0120hero": 5913,
      "\u0120speaking": 5914,
      "\u0120Jer": 5915,
      "split": 5916,
      "\u0120Work": 5917,
      "\u0120controlled": 5918,
      "\u0120Energy": 5919,
      "\u0120comprehensive": 5920,
      "Ab": 5921,
      "\u0120innovation": 5922,
      "\u0120typical": 5923,
      "west": 5924,
      "\u0120Leg": 5925,
      "\u0120attacks": 5926,
      "agon": 5927,
      "\u0120responses": 5928,
      "\u0120shaping": 5929,
      "\u0120regulations": 5930,
      "string": 5931,
      "\u0120largely": 5932,
      "\u0120stages": 5933,
      "\u0120enem": 5934,
      "roke": 5935,
      "\u0120audience": 5936,
      "\u0120addressing": 5937,
      "\u0120Sometimes": 5938,
      "\u0120matters": 5939,
      "\u0120paid": 5940,
      "under": 5941,
      "utive": 5942,
      "\u0120Bay": 5943,
      "\u0120vaccine": 5944,
      "position": 5945,
      "\u0120lose": 5946,
      "\u0120rural": 5947,
      "\u0120sell": 5948,
      "\u0120park": 5949,
      "\u0120Psych": 5950,
      "\u0120grown": 5951,
      "\u010a\u0120\u0120\u0120\u0120\u0120\u0120\u0120\u0120\u0120\u0120\u0120\u0120\u0120\u0120\u0120\u0120\u0120\u0120\u0120\u0120\u0120\u0120\u0120\u0120\u0120\u0120\u0120": 5952,
      "\u0120Kore": 5953,
      "\u0120recognized": 5954,
      "ceived": 5955,
      "\u0120consists": 5956,
      "create": 5957,
      "\u0120chosen": 5958,
      "ditional": 5959,
      "\u0120Care": 5960,
      "\u0120exists": 5961,
      "\u0120Medicine": 5962,
      "LA": 5963,
      "lean": 5964,
      "My": 5965,
      "\u0120traum": 5966,
      "\u0120Power": 5967,
      "\u0120drink": 5968,
      "\u0120liver": 5969,
      "\u0120Step": 5970,
      "\u0120mechanisms": 5971,
      "\u0120sequence": 5972,
      "\u0120cm": 5973,
      "IM": 5974,
      "\u0120band": 5975,
      "\u0120ahead": 5976,
      "ensus": 5977,
      "\u0120restrict": 5978,
      "\u0120Whe": 5979,
      "icing": 5980,
      "\u0120habitat": 5981,
      "\u0120Medical": 5982,
      "\u0120Emp": 5983,
      "\u0120torch": 5984,
      "\u0120accepted": 5985,
      "\u0120metab": 5986,
      "\u0120intervention": 5987,
      "\u0120wants": 5988,
      "\u0120cars": 5989,
      "umin": 5990,
      "\u0120Lou": 5991,
      "\u0120trial": 5992,
      "\u0120politics": 5993,
      "\u0120node": 5994,
      "\u0120agriculture": 5995,
      "\u0120ancest": 5996,
      "\u0120police": 5997,
      "\u0120Rec": 5998,
      "\u0120fro": 5999,
      "\u0120reprodu": 6000,
      "\u0120weap": 6001,
      "\u0120(\"": 6002,
      "arter": 6003,
      "hi": 6004,
      "\u0120adequ": 6005,
      "\u0120aimed": 6006,
      "\u0120assistance": 6007,
      "\u0120latest": 6008,
      "\u0120Mem": 6009,
      "\u0120diam": 6010,
      "\u0120prompt": 6011,
      "\u0120Dise": 6012,
      "agers": 6013,
      "\u0120Sen": 6014,
      "\u0120Saf": 6015,
      "\u0120OF": 6016,
      "\u0120cooking": 6017,
      "\u0120ment": 6018,
      "\u0120interaction": 6019,
      "\u0120crops": 6020,
      "\u0120opening": 6021,
      "\u0120opinion": 6022,
      "\u0120Jud": 6023,
      "\u0120absorb": 6024,
      "\u0120neut": 6025,
      "\u0120successfully": 6026,
      "anes": 6027,
      "\u0120sin": 6028,
      "\u0120phr": 6029,
      "\u0120studied": 6030,
      "\u0120variables": 6031,
      "\u0120fiction": 6032,
      "\u0120stret": 6033,
      "\u0120dut": 6034,
      "\u0120narratives": 6035,
      "ican": 6036,
      "\u0120harv": 6037,
      "\u0120Women": 6038,
      "\u0120Mil": 6039,
      "\u0120knowing": 6040,
      "\u0120proport": 6041,
      "\u0120Franc": 6042,
      "\u0120nit": 6043,
      "Go": 6044,
      "\u0120Treat": 6045,
      "\u0120stem": 6046,
      "\u0120Common": 6047,
      "\u0120script": 6048,
      "\u0120Any": 6049,
      "\u0120budget": 6050,
      "\u0120crisis": 6051,
      "estyle": 6052,
      "\u0120wave": 6053,
      "\u0120Russia": 6054,
      "oxide": 6055,
      "ava": 6056,
      "\u0120Virgin": 6057,
      "gu": 6058,
      "\u0120Engine": 6059,
      "expected": 6060,
      "\u0120hundreds": 6061,
      "ester": 6062,
      "\u0120catch": 6063,
      "\u0120server": 6064,
      "uous": 6065,
      "\u0120divided": 6066,
      "\u0120Micro": 6067,
      "erving": 6068,
      "\u0120Dec": 6069,
      "raint": 6070,
      "\u0120indigenous": 6071,
      "\u0120Elect": 6072,
      "\u0120reform": 6073,
      "\u0120adopt": 6074,
      "\u0120couple": 6075,
      "Americ": 6076,
      "Be": 6077,
      "sis": 6078,
      "\u0120Ber": 6079,
      "\u0120transition": 6080,
      "\u0120relax": 6081,
      "\u0120entry": 6082,
      "\u0120afford": 6083,
      "\u0120Ir": 6084,
      "\u0120discussions": 6085,
      "\u0120protected": 6086,
      "conds": 6087,
      "\u0120NASA": 6088,
      "\u0120residents": 6089,
      "\u0120measured": 6090,
      "rot": 6091,
      "\u0120survival": 6092,
      "\u0120doctors": 6093,
      "\u0120session": 6094,
      "rat": 6095,
      "\u0120apparent": 6096,
      "\u0120download": 6097,
      "\u0120accounts": 6098,
      "\u0120naturally": 6099,
      "\u0120calls": 6100,
      "Most": 6101,
      "\u0120allerg": 6102,
      "\u0120Russian": 6103,
      "\u0120acts": 6104,
      "node": 6105,
      "List": 6106,
      "\u0120neighbor": 6107,
      "itudes": 6108,
      "icate": 6109,
      "\u0120vehicles": 6110,
      "host": 6111,
      "\u0120critic": 6112,
      "\u0120principle": 6113,
      "orous": 6114,
      "\u0120positions": 6115,
      "\u0120parameters": 6116,
      "\u0120Information": 6117,
      "\u0120suffering": 6118,
      "perty": 6119,
      "\u0120machines": 6120,
      "Before": 6121,
      "\u0120beauty": 6122,
      "\u0120gar": 6123,
      "\u0120Studies": 6124,
      "\u0120Pacific": 6125,
      "\u0120Atl": 6126,
      "\u0120alt": 6127,
      "\u0120universe": 6128,
      "racy": 6129,
      "lers": 6130,
      "\u0120implications": 6131,
      "\u0120stock": 6132,
      "\u0120representation": 6133,
      "chers": 6134,
      "\u0120hunt": 6135,
      "\u0120af": 6136,
      "\u0120brand": 6137,
      "\u0120medications": 6138,
      "\u0120walking": 6139,
      "ocratic": 6140,
      "\u0120exploration": 6141,
      "\u0120therm": 6142,
      "\u0120attend": 6143,
      "\u0120reject": 6144,
      "\u0120resilience": 6145,
      "\u0120shapes": 6146,
      "\u0120waves": 6147,
      "organ": 6148,
      "iate": 6149,
      "{}": 6150,
      "\u0120department": 6151,
      "erals": 6152,
      "\u0120tun": 6153,
      "\u0120nearby": 6154,
      "aud": 6155,
      "agues": 6156,
      "main": 6157,
      "\u0120ethical": 6158,
      "\u0120distingu": 6159,
      "\u00c3\u0143": 6160,
      "\u0120coff": 6161,
      "\u0120conscious": 6162,
      "\u0120simpl": 6163,
      "\u0120Form": 6164,
      "\u0120trends": 6165,
      "\u0120astron": 6166,
      "NAME": 6167,
      "\u0120creativity": 6168,
      "rants": 6169,
      "\u0120maintenance": 6170,
      "\u0120generated": 6171,
      "ael": 6172,
      "\u0120Fe": 6173,
      "\u0120intric": 6174,
      "pers": 6175,
      "using": 6176,
      "\u0120boundaries": 6177,
      "\u0120visible": 6178,
      "\u0120Academ": 6179,
      "\u0120Rights": 6180,
      "\u0120Similarly": 6181,
      "\u0120understood": 6182,
      "\u0120san": 6183,
      "\u0120stronger": 6184,
      "\u0120shift": 6185,
      "\u0120ce": 6186,
      "van": 6187,
      "IP": 6188,
      "orrow": 6189,
      "BC": 6190,
      "\u0120cardi": 6191,
      "\u0120wire": 6192,
      "\u0120concerned": 6193,
      "\u0120curriculum": 6194,
      "\u0120broader": 6195,
      "\u0120prevention": 6196,
      "Get": 6197,
      "\u0120frame": 6198,
      "\u0120wildlife": 6199,
      "\u0120tells": 6200,
      "\u0120immun": 6201,
      "erent": 6202,
      "\u0120concentration": 6203,
      "\u0120confidence": 6204,
      "float": 6205,
      "\u0120portion": 6206,
      "\u0120massive": 6207,
      "\u0120Foundation": 6208,
      "cience": 6209,
      "\u0120inner": 6210,
      "\u0120framework": 6211,
      "olf": 6212,
      "ENT": 6213,
      "\u0120boost": 6214,
      "ascular": 6215,
      "\u0120producing": 6216,
      "\u0120sick": 6217,
      "\u0120Know": 6218,
      "\u0120remaining": 6219,
      "\u0120mobile": 6220,
      "\u0120wife": 6221,
      "\u0120kil": 6222,
      "\u0120habits": 6223,
      "inet": 6224,
      "\u0120Bet": 6225,
      "\u0120Book": 6226,
      "\u0120rig": 6227,
      "Of": 6228,
      "\u0120officials": 6229,
      "\u0120implementation": 6230,
      "\u0120News": 6231,
      "\u0120assemb": 6232,
      "\u0120gained": 6233,
      "\u0120Wind": 6234,
      "\u0120substance": 6235,
      "\u0120abilities": 6236,
      "\u0120army": 6237,
      "\u0120obtained": 6238,
      "\u0120engagement": 6239,
      "\u0120managed": 6240,
      "alian": 6241,
      "\u0120managing": 6242,
      "\u0120sweet": 6243,
      "\u0120Who": 6244,
      "ums": 6245,
      "ca": 6246,
      "\u0120signals": 6247,
      "Do": 6248,
      "\u0120cloud": 6249,
      "\u0120greatest": 6250,
      "\u0120east": 6251,
      "section": 6252,
      "\u0120desired": 6253,
      "\u0120appeared": 6254,
      "eal": 6255,
      "\u0120programming": 6256,
      "mic": 6257,
      "\u0120Exper": 6258,
      "elled": 6259,
      "\u0120narrow": 6260,
      "\u0120switch": 6261,
      "range": 6262,
      "\u0120Mass": 6263,
      "\u0120noise": 6264,
      "olicy": 6265,
      "img": 6266,
      "\u0120witness": 6267,
      "\u0120seeing": 6268,
      "\u0120sed": 6269,
      "annels": 6270,
      "\u0120advis": 6271,
      "\u0120Pers": 6272,
      "\u0120nurs": 6273,
      "\u0120fif": 6274,
      "pol": 6275,
      "\u0120ath": 6276,
      "\u0120architecture": 6277,
      "ampl": 6278,
      "DE": 6279,
      "\u0120expensive": 6280,
      "\u0120improvement": 6281,
      "\u0120overl": 6282,
      "\u0120conventional": 6283,
      "\u0120Sov": 6284,
      "\u0120explains": 6285,
      "\u0120demonstrate": 6286,
      "ads": 6287,
      "\u0120Control": 6288,
      "\u0120floor": 6289,
      "\u0120Army": 6290,
      "\u0120reader": 6291,
      "oto": 6292,
      "VID": 6293,
      "\u0120crim": 6294,
      "ansion": 6295,
      "request": 6296,
      "\u0120Commission": 6297,
      "\u0120designs": 6298,
      "bar": 6299,
      "\u0120nan": 6300,
      "dev": 6301,
      "\u0120decrease": 6302,
      "\u0120recognition": 6303,
      "\u0120pregnancy": 6304,
      "\u0120experiments": 6305,
      "ishes": 6306,
      "During": 6307,
      "\u0120fold": 6308,
      "\u0120taste": 6309,
      "Test": 6310,
      "status": 6311,
      "iday": 6312,
      "\u0120manip": 6313,
      "\u0120stored": 6314,
      "\u0120suc": 6315,
      "\u0120impossible": 6316,
      "Qu": 6317,
      "\u0120electronic": 6318,
      "\u0120marked": 6319,
      "\u0120imper": 6320,
      "aming": 6321,
      "pet": 6322,
      "acts": 6323,
      "\u0120pure": 6324,
      "ship": 6325,
      "\u0120tested": 6326,
      "pha": 6327,
      "asive": 6328,
      "\u0120]": 6329,
      "\u0120sentence": 6330,
      "\u0120Disc": 6331,
      "\u0120locations": 6332,
      "\u0120soldiers": 6333,
      "\u0120Nor": 6334,
      "ka": 6335,
      "\u0120satell": 6336,
      "ipe": 6337,
      "bert": 6338,
      "cium": 6339,
      "Read": 6340,
      "\u0120gun": 6341,
      "\u0120pig": 6342,
      "\u0120inflammation": 6343,
      "\u0120failed": 6344,
      "\u0120injuries": 6345,
      "\u0120paralle": 6346,
      "values": 6347,
      "\u0120customers": 6348,
      "\u0120persons": 6349,
      "\u0120manufacturing": 6350,
      "\u0120slowly": 6351,
      "\u0120prev": 6352,
      "Bl": 6353,
      "\u0120brown": 6354,
      "cules": 6355,
      "\u0120Robert": 6356,
      "ultane": 6357,
      "\u0120rail": 6358,
      "ashion": 6359,
      "\u0120philosophy": 6360,
      "\u0120considering": 6361,
      "\u0120Tim": 6362,
      "\u0109\u0109\u0109\u0109": 6363,
      "oom": 6364,
      "\u0120unless": 6365,
      "\u0120foster": 6366,
      "\u0120transportation": 6367,
      "iosity": 6368,
      "\u0120toler": 6369,
      "\u0120closed": 6370,
      "\u0120facing": 6371,
      "\u0120Despite": 6372,
      "cher": 6373,
      "\u0120Del": 6374,
      "\u0120vs": 6375,
      "\u0120sky": 6376,
      "rey": 6377,
      "\u0120western": 6378,
      "\u0120exercises": 6379,
      "\u0120Conn": 6380,
      "\u0120km": 6381,
      "\u0120capture": 6382,
      "\u0120Environmental": 6383,
      "ota": 6384,
      "\u0120recip": 6385,
      "\u0120Prov": 6386,
      "\u0120horiz": 6387,
      "\u0120instructions": 6388,
      "\u0120everyday": 6389,
      "\u0120participate": 6390,
      "\u0120horse": 6391,
      "\u0120indeed": 6392,
      "\u0120players": 6393,
      "\u0120fle": 6394,
      "\u0120defic": 6395,
      "\u0120enables": 6396,
      "\u0120Scient": 6397,
      "\u0120Vis": 6398,
      "\u0120ages": 6399,
      "\u0120Key": 6400,
      "ato": 6401,
      "\u0120pand": 6402,
      "Once": 6403,
      "\u0120Group": 6404,
      "\u0120revealed": 6405,
      "\u0120kit": 6406,
      "Me": 6407,
      "\u0120platforms": 6408,
      "BN": 6409,
      "\u0120prem": 6410,
      "\u0120prison": 6411,
      "\u0120exciting": 6412,
      "table": 6413,
      "================": 6414,
      "\u0120agreement": 6415,
      "\u0120artificial": 6416,
      "\u0120therap": 6417,
      "\u0120Course": 6418,
      "ocab": 6419,
      "\u0120stick": 6420,
      "\u0120cos": 6421,
      "\u0120Good": 6422,
      "\u0120Smith": 6423,
      "\u0120mac": 6424,
      "ixture": 6425,
      "LO": 6426,
      "\u0120Sea": 6427,
      "\u0120rhy": 6428,
      "\u0120crop": 6429,
      "otion": 6430,
      "\u0120remote": 6431,
      "urd": 6432,
      "ifier": 6433,
      "\u0120shop": 6434,
      "\u0120derived": 6435,
      "\u0120Div": 6436,
      "\u0120dental": 6437,
      "lements": 6438,
      "\u0120inches": 6439,
      "\u0120Det": 6440,
      "pack": 6441,
      "\u0120secondary": 6442,
      "\u0120stands": 6443,
      "ML": 6444,
      "\u0120competition": 6445,
      "ango": 6446,
      "\u0120Nature": 6447,
      "\u0120tit": 6448,
      "dule": 6449,
      "\u0120fixed": 6450,
      "\u0120pil": 6451,
      "\u0120Ident": 6452,
      "kwargs": 6453,
      "\u0120agreed": 6454,
      "\u0120pair": 6455,
      "\u0120monitor": 6456,
      "\u0120incorporating": 6457,
      "\u0120float": 6458,
      "\u0120composition": 6459,
      "\u0120rub": 6460,
      "\u0120consumers": 6461,
      "\u0120THE": 6462,
      "vity": 6463,
      "names": 6464,
      "open": 6465,
      "wo": 6466,
      "appy": 6467,
      "\u0120mixed": 6468,
      "\u0120photos": 6469,
      "\u0120extended": 6470,
      "\u0120heritage": 6471,
      "inity": 6472,
      "\u0120chart": 6473,
      "umes": 6474,
      "lected": 6475,
      "\u0120Lake": 6476,
      "App": 6477,
      "\u0120psychological": 6478,
      "\u0120standing": 6479,
      "\u0120Phil": 6480,
      "\u0120Ste": 6481,
      "\u0120possibly": 6482,
      "\u0120Mont": 6483,
      "\u0120Inv": 6484,
      "\u00d0\u00be": 6485,
      "\u0120usage": 6486,
      "ipping": 6487,
      "\u0120Flor": 6488,
      "\u0120syndrome": 6489,
      "\u0120vibr": 6490,
      "?\u00e2\u0122\u013f": 6491,
      "\u0120arrange": 6492,
      "SE": 6493,
      "\u0120uns": 6494,
      "\u0120forests": 6495,
      "\u0120plate": 6496,
      "\u0120turns": 6497,
      "\u0120ensures": 6498,
      "\u0120dynamics": 6499,
      "\u0120depict": 6500,
      "\u0120pip": 6501,
      "Dr": 6502,
      "ada": 6503,
      "\u0120inspired": 6504,
      "operation": 6505,
      "rc": 6506,
      "\u0120Sec": 6507,
      "\u0120museum": 6508,
      "esh": 6509,
      "\u0120director": 6510,
      "\u00d0\u00b0": 6511,
      "\u0120incredible": 6512,
      "\u0120sole": 6513,
      "\u0120repeated": 6514,
      "\u0120authent": 6515,
      "ourse": 6516,
      "\u0120deaths": 6517,
      "default": 6518,
      "keys": 6519,
      "Val": 6520,
      "\u0120passion": 6521,
      "ien": 6522,
      "\u0120evaluation": 6523,
      "\u0120analyze": 6524,
      "pace": 6525,
      "Sc": 6526,
      "\u0120Fin": 6527,
      "\u0120shell": 6528,
      "\u0120protocol": 6529,
      "\u0120mathematics": 6530,
      "\u0120Study": 6531,
      "\u0120susp": 6532,
      "\u0120Catholic": 6533,
      "\u0120beneficial": 6534,
      "\u0120writer": 6535,
      "\u0120pull": 6536,
      "client": 6537,
      "ini": 6538,
      "\u0120examination": 6539,
      "fortunately": 6540,
      "\u0120!=": 6541,
      "\u0120bones": 6542,
      "\u0120bot": 6543,
      "\u0120intellectual": 6544,
      "\u0120Think": 6545,
      "\u0120literary": 6546,
      "\u0120agencies": 6547,
      "\u0120arms": 6548,
      "\u0120stated": 6549,
      "\u0120theore": 6550,
      "\u0120achieved": 6551,
      "\u0120unknown": 6552,
      "\u0120Sar": 6553,
      "\u0120organized": 6554,
      "cycl": 6555,
      "\u0120medication": 6556,
      "\u0120expectations": 6557,
      "\u0120resolution": 6558,
      "\u0120CD": 6559,
      "\u0120village": 6560,
      "Conclusion": 6561,
      "\u0120marine": 6562,
      "umps": 6563,
      "\u0120accuracy": 6564,
      "UL": 6565,
      "\u0120thread": 6566,
      "\u0120Sum": 6567,
      "\u0120employed": 6568,
      "\u0120supports": 6569,
      "\u0120whereas": 6570,
      "itivity": 6571,
      "\u0120opened": 6572,
      "\u0120errors": 6573,
      "ented": 6574,
      "wing": 6575,
      "imer": 6576,
      "\u0120Creat": 6577,
      "\u0120writers": 6578,
      "\u0120meaningful": 6579,
      "\u0120confident": 6580,
      "\u0120score": 6581,
      "\u0120adopted": 6582,
      "\u0120limits": 6583,
      "uation": 6584,
      "\u0120categories": 6585,
      "\u0120Main": 6586,
      "asters": 6587,
      "\u0120dust": 6588,
      "aser": 6589,
      "nn": 6590,
      "\u0120recycl": 6591,
      "\u0120deeply": 6592,
      "erated": 6593,
      "\u0120AP": 6594,
      "\u0120Bre": 6595,
      "\u0120bio": 6596,
      "\u0120Comput": 6597,
      "iat": 6598,
      "\u0120powers": 6599,
      "\u0120arts": 6600,
      "\u0120describes": 6601,
      "ye": 6602,
      "\u0120functional": 6603,
      "\u0120arguments": 6604,
      "dered": 6605,
      "\u0120Carol": 6606,
      "function": 6607,
      "\u0120childhood": 6608,
      "\u0120ethnic": 6609,
      "\u0120represented": 6610,
      "\u0120evaluate": 6611,
      "\u0120arrived": 6612,
      "\u0120demonstrated": 6613,
      "orter": 6614,
      "\u0120tur": 6615,
      "\u0120forget": 6616,
      "dep": 6617,
      "\u0120har": 6618,
      "\u0120emerging": 6619,
      "\u0120reactions": 6620,
      "\u0120scene": 6621,
      "\u0120lect": 6622,
      "\u0120comments": 6623,
      "throp": 6624,
      "ulin": 6625,
      "\u0120manif": 6626,
      "ulating": 6627,
      "oral": 6628,
      "icking": 6629,
      "\u0120explo": 6630,
      "arity": 6631,
      "BT": 6632,
      "\u0120brings": 6633,
      "\u0120conversation": 6634,
      "\u0120abund": 6635,
      "\u0120distributed": 6636,
      "\u0120appreciation": 6637,
      "\u0120realized": 6638,
      "\u0120dynamic": 6639,
      "uh": 6640,
      "\u0120fell": 6641,
      "\u0120administration": 6642,
      "\u00d0\u00b5": 6643,
      "\u0120door": 6644,
      "zen": 6645,
      "\u0120Among": 6646,
      "\u0120Native": 6647,
      "\u0120houses": 6648,
      "\u0120inhab": 6649,
      "\u0120holds": 6650,
      "\u0120listed": 6651,
      "\u0120suffer": 6652,
      "!\"": 6653,
      "\u0120rely": 6654,
      "\u0120wisdom": 6655,
      "\u0120extensive": 6656,
      "\u0120cart": 6657,
      "ocation": 6658,
      "urns": 6659,
      "\u0120Charles": 6660,
      "\u0120Henry": 6661,
      ".'": 6662,
      "},": 6663,
      "essions": 6664,
      "\u0120Jose": 6665,
      "length": 6666,
      "hus": 6667,
      "\u0120Wild": 6668,
      "\u0120aqu": 6669,
      "ports": 6670,
      "osc": 6671,
      "\u0120worse": 6672,
      "\u0120ble": 6673,
      "iology": 6674,
      "\u0120collective": 6675,
      "AA": 6676,
      "\u0120behaviour": 6677,
      "\u0120negot": 6678,
      "\u0120grew": 6679,
      "\u0120pump": 6680,
      "\u0120accel": 6681,
      "\u0120Introduction": 6682,
      "\u0120decline": 6683,
      "\u0120Wil": 6684,
      "\u0120supplement": 6685,
      "\u0120industries": 6686,
      "\u0120diss": 6687,
      "\u0120flight": 6688,
      "\u0120Consider": 6689,
      "SS": 6690,
      "she": 6691,
      "item": 6692,
      "world": 6693,
      "\u0120fewer": 6694,
      "\u0120leaf": 6695,
      "rip": 6696,
      "\u0120insurance": 6697,
      "\u0120Acc": 6698,
      "\u0120unus": 6699,
      "\u0120transmission": 6700,
      "\u0120infected": 6701,
      "aria": 6702,
      "\u0120blocks": 6703,
      "\u0120intake": 6704,
      "\u0120healing": 6705,
      "esity": 6706,
      "obj": 6707,
      "\u0120zero": 6708,
      "\u0120presentation": 6709,
      "ala": 6710,
      "tage": 6711,
      "usiness": 6712,
      "color": 6713,
      "\u0120ratio": 6714,
      "\u0120camera": 6715,
      "\u0120fertil": 6716,
      "\u0120possibility": 6717,
      "\u0120technological": 6718,
      "\u0120alongside": 6719,
      "\u0120chief": 6720,
      "\u0120Company": 6721,
      "update": 6722,
      "\u0120immediate": 6723,
      "\u0120marriage": 6724,
      "\u0120Ext": 6725,
      "ersonal": 6726,
      "hemical": 6727,
      "\u0120coffee": 6728,
      "ributes": 6729,
      "ocracy": 6730,
      "\u0120Soviet": 6731,
      "Te": 6732,
      "phone": 6733,
      "\u0120creatures": 6734,
      "athe": 6735,
      "\u0120matrix": 6736,
      "'d": 6737,
      "riend": 6738,
      "\u0120normally": 6739,
      "\u0120mountain": 6740,
      "\u0120Ox": 6741,
      "\u0120discrimination": 6742,
      "ena": 6743,
      "Inst": 6744,
      "\u0120seemed": 6745,
      "irt": 6746,
      "\u0120empathy": 6747,
      "models": 6748,
      "rons": 6749,
      "\u0120Library": 6750,
      "pread": 6751,
      "\u0120steel": 6752,
      "\u0120survive": 6753,
      "\u0120Yet": 6754,
      "\u0120fighting": 6755,
      "\u0120molecules": 6756,
      "\u0120twice": 6757,
      "indu": 6758,
      "\u0120density": 6759,
      "\u0120gall": 6760,
      "\u0120comfortable": 6761,
      "\u0120Those": 6762,
      "\u0120PC": 6763,
      "\u0120markets": 6764,
      "\u0120returns": 6765,
      "such": 6766,
      "\u0120Diff": 6767,
      "gent": 6768,
      "\u0120Review": 6769,
      "lets": 6770,
      "\u0120desire": 6771,
      "\u0120numpy": 6772,
      "\u0120indicates": 6773,
      "words": 6774,
      "actions": 6775,
      "\u0120navigate": 6776,
      "Bob": 6777,
      "how": 6778,
      "\u0120learners": 6779,
      "\u0120tall": 6780,
      "war": 6781,
      "\u0120missing": 6782,
      "\u0120moon": 6783,
      "\u0120applying": 6784,
      "\u0120Professor": 6785,
      "\u0120colleagues": 6786,
      "ivalent": 6787,
      "\u0120Sl": 6788,
      "\u0120couldn": 6789,
      "\u0120authorities": 6790,
      "\u0120latter": 6791,
      "\u0120broken": 6792,
      "\u0120alle": 6793,
      "frame": 6794,
      "itative": 6795,
      "\u0120wish": 6796,
      "\u00e2\u0122\u013b.": 6797,
      "\u0120din": 6798,
      "mm": 6799,
      "omach": 6800,
      "AG": 6801,
      "\u0120Global": 6802,
      "\u0120expressed": 6803,
      "\u0120breathing": 6804,
      "\u0120Canadian": 6805,
      "\u0120IP": 6806,
      "message": 6807,
      "\u0120insight": 6808,
      "\u0120pursu": 6809,
      "\u0120About": 6810,
      "\u0120compare": 6811,
      "'])": 6812,
      "\u0120younger": 6813,
      "\u0120lifestyle": 6814,
      "\u0120societies": 6815,
      "\u0120advantages": 6816,
      "ventions": 6817,
      "\u0120Mo": 6818,
      "\u0120willing": 6819,
      "\u0120guess": 6820,
      "\u0120societal": 6821,
      "base": 6822,
      "\u0120publication": 6823,
      "\u0120prove": 6824,
      "\u0120styles": 6825,
      "\u0120observations": 6826,
      "ighter": 6827,
      "assion": 6828,
      "ctic": 6829,
      "mean": 6830,
      "sm": 6831,
      "gest": 6832,
      "\u0120inject": 6833,
      "\u0120necessarily": 6834,
      "\u0120publish": 6835,
      "det": 6836,
      "cluding": 6837,
      "bra": 6838,
      "burg": 6839,
      "\u0120Mag": 6840,
      "ropical": 6841,
      "ribe": 6842,
      "claim": 6843,
      "\u0120strict": 6844,
      "\u0120simultane": 6845,
      "\u0120gal": 6846,
      "\u0120painting": 6847,
      "idx": 6848,
      "rovers": 6849,
      "\u0120update": 6850,
      "\u0120optimal": 6851,
      "\u0120commitment": 6852,
      "page": 6853,
      "stone": 6854,
      "\u0120fant": 6855,
      "ona": 6856,
      "\u0120mamm": 6857,
      "\u0120listening": 6858,
      "sor": 6859,
      "\u0120continuous": 6860,
      "\u0120housing": 6861,
      "born": 6862,
      "aked": 6863,
      "\u0120supplies": 6864,
      "\u0120crime": 6865,
      "\u0120debate": 6866,
      "\u0120axis": 6867,
      "Act": 6868,
      "\u0120['": 6869,
      "\u0120focuses": 6870,
      "\u0120agency": 6871,
      "\"),": 6872,
      "\u0120shut": 6873,
      "\u0120Bro": 6874,
      "\u0120Ess": 6875,
      "\u0120vulnerable": 6876,
      "\u0120myth": 6877,
      "\u0120constit": 6878,
      "edy": 6879,
      "\u0120Long": 6880,
      "\u0120category": 6881,
      "Or": 6882,
      "\u0120Ham": 6883,
      "\u0120compr": 6884,
      "\u0120coun": 6885,
      "PR": 6886,
      "\u0120Finally": 6887,
      "\u0120succeed": 6888,
      "\u0120fav": 6889,
      "\u0120participation": 6890,
      "Through": 6891,
      "\u0120Est": 6892,
      "\u0120aer": 6893,
      "\u0120tf": 6894,
      "adata": 6895,
      "\u0120organisms": 6896,
      "rays": 6897,
      "ibl": 6898,
      "\u0120greatly": 6899,
      "called": 6900,
      "oves": 6901,
      "\u0120domain": 6902,
      "\u0120adventure": 6903,
      "escription": 6904,
      "\u0120preval": 6905,
      "\u0120Only": 6906,
      "\u0120instruments": 6907,
      "\u0120accum": 6908,
      "\u0120originally": 6909,
      "\u0120Oh": 6910,
      "points": 6911,
      "\u0120Louis": 6912,
      "\u0120fabric": 6913,
      "\u0120thereby": 6914,
      "loss": 6915,
      "ua": 6916,
      "\u0120fly": 6917,
      "real": 6918,
      "\u0120depos": 6919,
      "\u0120Gold": 6920,
      "hav": 6921,
      "\u0120electron": 6922,
      "\u0120ear": 6923,
      "\u0120sections": 6924,
      "dem": 6925,
      "\u0120circuit": 6926,
      "atal": 6927,
      "\u0120Land": 6928,
      "\u0120eld": 6929,
      "width": 6930,
      "dr": 6931,
      "\u0120regist": 6932,
      "\u0120dealing": 6933,
      "\u0120engaged": 6934,
      "angle": 6935,
      "\u0120verb": 6936,
      "Other": 6937,
      "\u0120Ap": 6938,
      "\u0120turning": 6939,
      "idespread": 6940,
      "\u0120difficulty": 6941,
      "\u0120emerged": 6942,
      "\u0120breath": 6943,
      "\u0120physics": 6944,
      "\u0120photograph": 6945,
      "cm": 6946,
      "\u0120ends": 6947,
      "\u0120Australian": 6948,
      "\u0120artist": 6949,
      "\u0120Nations": 6950,
      "ployment": 6951,
      "\u0120threats": 6952,
      "\u0120Virginia": 6953,
      "\u0120thanks": 6954,
      "\u0120fellow": 6955,
      "\u0120bread": 6956,
      "\u0120Tem": 6957,
      "\u0120mechanism": 6958,
      "\u0120Language": 6959,
      "\u0120meal": 6960,
      "\u0120holding": 6961,
      "\u0120accessible": 6962,
      "\u0120orient": 6963,
      "\u0120deli": 6964,
      "ittle": 6965,
      "\u0120License": 6966,
      "\u0120independence": 6967,
      "\u0120sight": 6968,
      "\u0120indu": 6969,
      "\u0120consideration": 6970,
      "\u0120Tre": 6971,
      "\u0120Eth": 6972,
      "\u0120district": 6973,
      "\u0120whatever": 6974,
      "holders": 6975,
      "anda": 6976,
      "III": 6977,
      "\u0120guarant": 6978,
      "\u0120battery": 6979,
      "ambda": 6980,
      "\u0120ske": 6981,
      "hesis": 6982,
      "\u0120grid": 6983,
      "\u0120teams": 6984,
      "\u0120employment": 6985,
      "fulness": 6986,
      "\u0120objective": 6987,
      "\u0120magnetic": 6988,
      "\u0120Revolution": 6989,
      "\u0120antibiot": 6990,
      "\u0120complicated": 6991,
      "\u0120serving": 6992,
      "\u0120Before": 6993,
      "hop": 6994,
      "\u0120aircraft": 6995,
      "\u0120empt": 6996,
      "\u0120funds": 6997,
      "CD": 6998,
      "target": 6999,
      "\u0120Non": 7000,
      "\u0120warming": 7001,
      "\u0120reliable": 7002,
      "\u0120waiting": 7003,
      "\u0120stability": 7004,
      "\u0120cards": 7005,
      "ao": 7006,
      "\u0120Current": 7007,
      "oples": 7008,
      "Finally": 7009,
      "esting": 7010,
      "\u0120opposite": 7011,
      "\u0120bear": 7012,
      "\u0120drain": 7013,
      "\u0120Frank": 7014,
      "MP": 7015,
      "allow": 7016,
      "\u0120accident": 7017,
      "\u0120trained": 7018,
      "sts": 7019,
      "gans": 7020,
      "\u0120routine": 7021,
      "\u0120trip": 7022,
      "\u0120Check": 7023,
      "\u0120uncertain": 7024,
      "inction": 7025,
      "Le": 7026,
      "\u0120insects": 7027,
      "\u0120doubt": 7028,
      "zed": 7029,
      "\u0120Federal": 7030,
      "obs": 7031,
      "source": 7032,
      "cor": 7033,
      "\u0120maps": 7034,
      "\u0120sod": 7035,
      "]:": 7036,
      "\u0120delivery": 7037,
      "\u0120tap": 7038,
      "\u0120unexpected": 7039,
      "\u0120occasion": 7040,
      "press": 7041,
      "\u0120Paris": 7042,
      "\u0120chick": 7043,
      "\u0120Adv": 7044,
      "\u0120sought": 7045,
      "\u0120administr": 7046,
      "pring": 7047,
      "\u0120flag": 7048,
      "\u0120Early": 7049,
      "\u0120Commit": 7050,
      "\u0120laun": 7051,
      "\u0120meals": 7052,
      "\u0120affecting": 7053,
      "\u0120Office": 7054,
      "RA": 7055,
      "\u0120editor": 7056,
      "\u0120Empire": 7057,
      "\u0120logging": 7058,
      "\u0120consumer": 7059,
      "\u0120preparation": 7060,
      "ictor": 7061,
      "\u0120noticed": 7062,
      "\u0120module": 7063,
      "\u0120attached": 7064,
      "\u0120false": 7065,
      "elihood": 7066,
      "\u0120spending": 7067,
      "\u0120characterized": 7068,
      "\u0120Str": 7069,
      "content": 7070,
      "\u0120reduces": 7071,
      "liament": 7072,
      "\u0120concerning": 7073,
      "\u0120split": 7074,
      "\u0120stake": 7075,
      "author": 7076,
      "\u0120acids": 7077,
      "\u0120substances": 7078,
      "osph": 7079,
      "\u0120Rad": 7080,
      "\u0120player": 7081,
      "\u0120demands": 7082,
      "\u0120initially": 7083,
      "issues": 7084,
      "\u0120encounter": 7085,
      "ulty": 7086,
      "\u0120Indigenous": 7087,
      "\u0120plt": 7088,
      "bin": 7089,
      "\u0120Type": 7090,
      "\u0120Labor": 7091,
      "\u0120theories": 7092,
      "\u0120curiosity": 7093,
      "\u0120stable": 7094,
      "\u0120beings": 7095,
      "ometry": 7096,
      "jango": 7097,
      "rog": 7098,
      "rus": 7099,
      "\u0120heavily": 7100,
      "\u0120alter": 7101,
      ".|": 7102,
      "ette": 7103,
      "\u0120fossil": 7104,
      "\u0120Cy": 7105,
      "\u0120adm": 7106,
      "\u0120comparison": 7107,
      "\u0120USA": 7108,
      "kin": 7109,
      "Over": 7110,
      "rine": 7111,
      "\u0120border": 7112,
      "OL": 7113,
      "anches": 7114,
      "\u0120Open": 7115,
      "\u010a\u0120\u0120\u0120\u0120\u010a\u0120\u0120\u0120": 7116,
      "\u0120vessels": 7117,
      "\u0120cup": 7118,
      "\u0120corn": 7119,
      "\u0120teen": 7120,
      "\u0120butter": 7121,
      "\u0120sales": 7122,
      "\u0120widespread": 7123,
      "\u0120produces": 7124,
      "inder": 7125,
      "pare": 7126,
      "\u0120summary": 7127,
      "ipal": 7128,
      "ella": 7129,
      "\u0120calcium": 7130,
      "\u0120purchase": 7131,
      "\u0120mathematical": 7132,
      "\u0120enthus": 7133,
      "Under": 7134,
      "\u0120End": 7135,
      "\u0120partner": 7136,
      "\u0120Dig": 7137,
      "ora": 7138,
      "\u0120Sym": 7139,
      "Ref": 7140,
      "\u0120drawn": 7141,
      "\u0120regardless": 7142,
      "Set": 7143,
      "\u0120newsp": 7144,
      "\u0120stomach": 7145,
      "\u0120forth": 7146,
      "\u0120complexity": 7147,
      "TP": 7148,
      "SP": 7149,
      "ocket": 7150,
      "ommod": 7151,
      "\u0120Constitution": 7152,
      "esson": 7153,
      "\u0120compounds": 7154,
      "\u0120remarkable": 7155,
      "\u0120profound": 7156,
      "\u0120surve": 7157,
      "\u0120Italy": 7158,
      "\u0120Ill": 7159,
      "itter": 7160,
      "\u0120fiber": 7161,
      "\u0120Florida": 7162,
      "ailed": 7163,
      "\u0120humanity": 7164,
      "ptions": 7165,
      "Pe": 7166,
      "\u0120df": 7167,
      "\u0120unable": 7168,
      "\u0120reven": 7169,
      "\u00c3\u00bc": 7170,
      "comfort": 7171,
      "\u0120Home": 7172,
      "icide": 7173,
      "isk": 7174,
      "reshold": 7175,
      "Chapter": 7176,
      "fold": 7177,
      "parse": 7178,
      "\u0120Columb": 7179,
      "\u0120dance": 7180,
      "Ob": 7181,
      "\u0120none": 7182,
      "\u0120inherent": 7183,
      "\u0120Mill": 7184,
      "asts": 7185,
      "\u0120cong": 7186,
      "\u0120lic": 7187,
      "\u0120tea": 7188,
      "\u0120racial": 7189,
      "\u0120pron": 7190,
      "\u0120COVID": 7191,
      "\u0120putting": 7192,
      "\u0120permanent": 7193,
      "\u0120Southern": 7194,
      "\u0120contributions": 7195,
      "\u0120Access": 7196,
      "\u0120inhib": 7197,
      "\u0120launch": 7198,
      "ribed": 7199,
      "\u0120rid": 7200,
      "\u0120mood": 7201,
      "\u0120adequate": 7202,
      "\u0120Rob": 7203,
      "\u0120clothing": 7204,
      "\u0120perm": 7205,
      "ishment": 7206,
      "\u0120troops": 7207,
      "\u0120reserv": 7208,
      "\u010d\u010a\u010d": 7209,
      "\u0120Natural": 7210,
      "\u0120preventing": 7211,
      "rd": 7212,
      "\u0120smoking": 7213,
      "\u0120Lib": 7214,
      "child": 7215,
      "\u0120Street": 7216,
      "\u0120hus": 7217,
      "\u0120convey": 7218,
      "\u0120proceed": 7219,
      "\u0120influenced": 7220,
      "\u0120json": 7221,
      "\u0120expansion": 7222,
      "\u0120delay": 7223,
      "Rem": 7224,
      "\u0120legs": 7225,
      "\u0120surfaces": 7226,
      "MA": 7227,
      "\u0120criteria": 7228,
      "\u0120happening": 7229,
      "Since": 7230,
      "rency": 7231,
      "Stud": 7232,
      "\u0120replaced": 7233,
      "\u0120swim": 7234,
      "\u0120Bur": 7235,
      "\u0120operate": 7236,
      "\u0120oblig": 7237,
      "\u0120joined": 7238,
      "terol": 7239,
      "orph": 7240,
      "\u0120trouble": 7241,
      "\u0120Modern": 7242,
      "\u0120subsequent": 7243,
      "\u0120overw": 7244,
      "\u0120committed": 7245,
      "\u0120cul": 7246,
      "\u0120lens": 7247,
      "opic": 7248,
      "\u0120Kh": 7249,
      "\u0120limitations": 7250,
      "\u0120initiatives": 7251,
      "\u0120mand": 7252,
      "\u0120Fre": 7253,
      "draw": 7254,
      "\u0120decade": 7255,
      "\u0120angle": 7256,
      "\u0120concrete": 7257,
      "\u0120insert": 7258,
      "\u0120forg": 7259,
      "title": 7260,
      "\u0120Ann": 7261,
      "\u0120Francis": 7262,
      "\u0120ISBN": 7263,
      "\u0120substantial": 7264,
      "asy": 7265,
      "Med": 7266,
      "\u0120subs": 7267,
      "\u0120Rome": 7268,
      "\u0120tu": 7269,
      "\u0120gone": 7270,
      "\u0120Haw": 7271,
      "\u0120mys": 7272,
      "isters": 7273,
      "\u0120Ter": 7274,
      "\u0120Enc": 7275,
      "rooms": 7276,
      "edge": 7277,
      "\u0120asp": 7278,
      "\u0120channel": 7279,
      "\u0120street": 7280,
      "\u0120focusing": 7281,
      "\u0120craft": 7282,
      "________": 7283,
      "\u0120Disease": 7284,
      "\u0120Take": 7285,
      "\u0120dent": 7286,
      "\u0120refuge": 7287,
      "\u0120Peter": 7288,
      "\u0120cryst": 7289,
      "olesterol": 7290,
      "\u0120hypothes": 7291,
      "\u0120centers": 7292,
      "EP": 7293,
      "\u0120conference": 7294,
      "\u0120Dan": 7295,
      "\u0120protecting": 7296,
      "\u0120disturb": 7297,
      "first": 7298,
      "\u0120Color": 7299,
      "\u0120Pub": 7300,
      "\u0120conflicts": 7301,
      "\u0120colour": 7302,
      "\u0120Mean": 7303,
      "\u0120facilitate": 7304,
      "\u0120territory": 7305,
      "Can": 7306,
      "\u0120fract": 7307,
      "earchers": 7308,
      "Par": 7309,
      "\u0120vac": 7310,
      "\u0120percentage": 7311,
      "fun": 7312,
      "\u0120runs": 7313,
      "\u0120tut": 7314,
      "\u0120chrom": 7315,
      "\u0120laboratory": 7316,
      "\u0120fashion": 7317,
      "atial": 7318,
      "\u0120realize": 7319,
      "orig": 7320,
      "\u0120mild": 7321,
      "\u0120labels": 7322,
      "\u0120zone": 7323,
      "ulary": 7324,
      "\u0120Report": 7325,
      "zil": 7326,
      "\u0120reward": 7327,
      "\u0120introduce": 7328,
      "\u0120q": 7329,
      "\u0120gluc": 7330,
      "\u0120aims": 7331,
      "vol": 7332,
      "opyright": 7333,
      "Your": 7334,
      "\u0120minds": 7335,
      "\u0120wouldn": 7336,
      "erior": 7337,
      "\u010a\u0120\u0120\u0120\u0120\u0120\u0120\u0120\u0120\u0120": 7338,
      "\u0120detection": 7339,
      "ographical": 7340,
      "\u0120rice": 7341,
      "\u00c3\u00b3": 7342,
      "iratory": 7343,
      "\u0120roof": 7344,
      "\u0120seconds": 7345,
      "\u0120athlet": 7346,
      "\u0120preserve": 7347,
      "asty": 7348,
      "\u0120symbols": 7349,
      "\u0120ru": 7350,
      "\u0120Age": 7351,
      "\u0120resulted": 7352,
      "\u0120{'": 7353,
      "soft": 7354,
      "\u0120decor": 7355,
      "Alice": 7356,
      "\u0120Ocean": 7357,
      "idity": 7358,
      "\u0120controvers": 7359,
      "\u0120intent": 7360,
      "\u0120Ire": 7361,
      "\u0120inequ": 7362,
      "\u0120reveal": 7363,
      "\u0120trials": 7364,
      "\u00e3\u0123": 7365,
      "abs": 7366,
      "\u0120flour": 7367,
      "\u0120veter": 7368,
      "\u0120Does": 7369,
      "\u0120sacr": 7370,
      "\u0120gap": 7371,
      "\u0120TV": 7372,
      "\u0120installed": 7373,
      "\u0120theme": 7374,
      "eenth": 7375,
      "\u0120investigation": 7376,
      "\u0120proof": 7377,
      "current": 7378,
      "\u0120jump": 7379,
      "uts": 7380,
      "\u0120sheet": 7381,
      "irus": 7382,
      "agraph": 7383,
      "\u0120constitution": 7384,
      "ffective": 7385,
      "\u0120stuff": 7386,
      "\u0120neck": 7387,
      "\u0120daughter": 7388,
      "forcement": 7389,
      "\u0120neighborhood": 7390,
      "\u0120Clin": 7391,
      "\u0120alike": 7392,
      "Su": 7393,
      "\u0120Tor": 7394,
      "\u0120bridge": 7395,
      "\u010a\u0120\u0120\u0120\u0120\u0120\u0120\u0120\u0120\u0120\u0120\u0120\u0120": 7396,
      "\u0120mitig": 7397,
      "\u0120disrupt": 7398,
      "\u0120libr": 7399,
      "\u0120recommendations": 7400,
      "\u0120identifying": 7401,
      "ih": 7402,
      "\u0120Examples": 7403,
      "SD": 7404,
      "eties": 7405,
      "\u0120interf": 7406,
      "=[": 7407,
      "\u0120adj": 7408,
      "onia": 7409,
      "\u0120route": 7410,
      "\u0120prominent": 7411,
      "kins": 7412,
      "\u0120Cap": 7413,
      "plant": 7414,
      "\u0120biggest": 7415,
      "ita": 7416,
      "\u0120conven": 7417,
      "\u0120receiving": 7418,
      "\u0120shot": 7419,
      "\u0120encourages": 7420,
      "iated": 7421,
      "\u0120feels": 7422,
      "\u0120Italian": 7423,
      "\u0120graduate": 7424,
      "\u0120depart": 7425,
      "\u0120enabling": 7426,
      "conf": 7427,
      "argument": 7428,
      "\u0120passage": 7429,
      "CL": 7430,
      "\u0120Eastern": 7431,
      "\u0120warn": 7432,
      "\u0120gram": 7433,
      "example": 7434,
      "rint": 7435,
      "\u0120curious": 7436,
      "\u0120emotion": 7437,
      "\u0120relation": 7438,
      "\u0120contained": 7439,
      "\u0120argue": 7440,
      "American": 7441,
      "fish": 7442,
      "\u0120gradually": 7443,
      "TH": 7444,
      "hma": 7445,
      "\u0120excessive": 7446,
      "oven": 7447,
      "\u0120corner": 7448,
      "heast": 7449,
      "sey": 7450,
      "\u0120thesis": 7451,
      "\u0120constantly": 7452,
      "\u0120Northern": 7453,
      "ocabulary": 7454,
      "\u0120barriers": 7455,
      "\u0120dream": 7456,
      "\u0120hydrogen": 7457,
      "\u0120Asian": 7458,
      "ett": 7459,
      "\u0120engineers": 7460,
      "initely": 7461,
      "\u0120nine": 7462,
      "cho": 7463,
      "Id": 7464,
      "\u0120membr": 7465,
      "\u00c3\u00b6": 7466,
      "\u0120crow": 7467,
      "\u0120unw": 7468,
      "Figure": 7469,
      "\u0120liv": 7470,
      "\u0120entertain": 7471,
      "\u0120Ut": 7472,
      "\u0120Mad": 7473,
      "\u0120integrated": 7474,
      "\u0120merely": 7475,
      "\u0120Spain": 7476,
      "outs": 7477,
      ".\u00e2\u0122\u013b": 7478,
      "Introduction": 7479,
      "\u0120providers": 7480,
      "utch": 7481,
      "\u0120neur": 7482,
      "sl": 7483,
      "icago": 7484,
      "\u0120AND": 7485,
      "tery": 7486,
      "Time": 7487,
      "\u0120moves": 7488,
      "\u0120dialogue": 7489,
      "\u0120hole": 7490,
      "irty": 7491,
      "\u0120equivalent": 7492,
      "\u0120estimate": 7493,
      "\u0120pra": 7494,
      "aph": 7495,
      "\u0120sustainability": 7496,
      "\u0120doi": 7497,
      "\u0120founded": 7498,
      "\u0120greenhouse": 7499,
      "\u00e2\u0122\u013b,": 7500,
      "\u0120feeding": 7501,
      "bridge": 7502,
      "\u0120presents": 7503,
      "\u0120interpretation": 7504,
      "\u0120biology": 7505,
      "\u0120analys": 7506,
      "\u0120vote": 7507,
      "\u0120advert": 7508,
      "\u0120Joseph": 7509,
      "\u0120printing": 7510,
      "usal": 7511,
      "\u0120accommod": 7512,
      "\u0120implemented": 7513,
      "itan": 7514,
      "\u0120statistics": 7515,
      "\u0120musical": 7516,
      "ediat": 7517,
      "uality": 7518,
      "bing": 7519,
      "\u0120Mult": 7520,
      "\u0120satisf": 7521,
      "\u0120twenty": 7522,
      "\u0120amid": 7523,
      "OC": 7524,
      "Ed": 7525,
      "fts": 7526,
      "\u0120evolved": 7527,
      "istical": 7528,
      "\u0120calculate": 7529,
      "\u0120seg": 7530,
      "\u0120agents": 7531,
      "\u0120honor": 7532,
      "fill": 7533,
      "\u0120differently": 7534,
      "quality": 7535,
      "\u0120correctly": 7536,
      "\u0120educators": 7537,
      "\u0120Sign": 7538,
      "\u0120recept": 7539,
      "\u0120artistic": 7540,
      "\u0120possibilities": 7541,
      "\u0120moisture": 7542,
      "\u0120expertise": 7543,
      "case": 7544,
      "\u0120abstract": 7545,
      "\u0120nerve": 7546,
      "\u0120robust": 7547,
      "DP": 7548,
      "\u0120colonial": 7549,
      "\u0120grad": 7550,
      "\u0120rising": 7551,
      "\u0120treating": 7552,
      "\u0120married": 7553,
      "chen": 7554,
      "\u0120shad": 7555,
      "\u0120supposed": 7556,
      "\u0120thousand": 7557,
      "itory": 7558,
      "oving": 7559,
      "medi": 7560,
      "grad": 7561,
      "\u0120whenever": 7562,
      "earing": 7563,
      "\u0120intricate": 7564,
      "mented": 7565,
      "ilation": 7566,
      "spe": 7567,
      "\u0120plenty": 7568,
      "\u0120ended": 7569,
      "everal": 7570,
      "ontal": 7571,
      "onents": 7572,
      "\u0120division": 7573,
      "See": 7574,
      "\u0120Sing": 7575,
      "\u0120myself": 7576,
      "awn": 7577,
      "\u0120interventions": 7578,
      "\u0120measurements": 7579,
      "inates": 7580,
      "\u0120conversations": 7581,
      "\u0120equally": 7582,
      "Model": 7583,
      "\u0120contamin": 7584,
      "\u0120measurement": 7585,
      "\u0120epid": 7586,
      "\u0120unusual": 7587,
      "\u0120spok": 7588,
      "\u0120instances": 7589,
      "\u0120difficulties": 7590,
      "\u0120targets": 7591,
      "\u0120legislation": 7592,
      "################################": 7593,
      "orses": 7594,
      "\u0120relief": 7595,
      "\u0120capabilities": 7596,
      "\u0120Ireland": 7597,
      "\u0120Royal": 7598,
      "\u0120cust": 7599,
      "\u0120dioxide": 7600,
      "ikip": 7601,
      "\u0120sys": 7602,
      "\u0120Pop": 7603,
      "\u0120combat": 7604,
      "\u0120requiring": 7605,
      "\u0120Title": 7606,
      "\u0120branch": 7607,
      "bles": 7608,
      "mes": 7609,
      "\u0120mm": 7610,
      "\u0120bringing": 7611,
      "\u0120pool": 7612,
      "\u0120phenomenon": 7613,
      "\u0120estimates": 7614,
      "\u0120owner": 7615,
      "\u0120outcome": 7616,
      "ushed": 7617,
      "File": 7618,
      "|'": 7619,
      "\u0120debt": 7620,
      "\u0120Mars": 7621,
      "\u0120ped": 7622,
      "\u0120parallel": 7623,
      "\u0120overwhel": 7624,
      "\u0120Max": 7625,
      "\u0120rivers": 7626,
      "OP": 7627,
      "\u0120Administ": 7628,
      "irds": 7629,
      "\u0120objectives": 7630,
      "\u0120mechanical": 7631,
      "\u0120Committee": 7632,
      "close": 7633,
      "\u0120effectiveness": 7634,
      "\u0120assume": 7635,
      "\u0120BC": 7636,
      "eers": 7637,
      "utils": 7638,
      "response": 7639,
      "eras": 7640,
      "ugh": 7641,
      "\u0120Pan": 7642,
      "\u0120nic": 7643,
      "\u0120nob": 7644,
      "\u0120Spe": 7645,
      "andon": 7646,
      "find": 7647,
      "neys": 7648,
      "\u0120controls": 7649,
      "esis": 7650,
      "\u0120tissues": 7651,
      "\u0120destroyed": 7652,
      "\u0120discussing": 7653,
      "\u0120ille": 7654,
      "\u0120Where": 7655,
      "\u0120Liter": 7656,
      "\u0120integration": 7657,
      "gers": 7658,
      "antly": 7659,
      "\u0120od": 7660,
      "\u0120Resp": 7661,
      "\u0120Change": 7662,
      "\u0120specified": 7663,
      "\u0120Free": 7664,
      "ceptions": 7665,
      "\u0120overcome": 7666,
      "\u0120sched": 7667,
      "etch": 7668,
      "Per": 7669,
      "\u0120paint": 7670,
      "\u0120obesity": 7671,
      "oir": 7672,
      "\u0120diagnosed": 7673,
      "\u0120ran": 7674,
      "\u0120acknowled": 7675,
      "\u0120comprom": 7676,
      "\u0120stimul": 7677,
      "var": 7678,
      "\u0120www": 7679,
      "\u0120cats": 7680,
      "lights": 7681,
      "osion": 7682,
      "\u0120outl": 7683,
      "Add": 7684,
      "\u0120passing": 7685,
      "\u0120Imp": 7686,
      "anta": 7687,
      "\u0120algorithms": 7688,
      "health": 7689,
      "\u0120minimize": 7690,
      "\u0120performing": 7691,
      "lik": 7692,
      "\u0120minerals": 7693,
      "\u0120biod": 7694,
      "\u0120wel": 7695,
      "\u0120clients": 7696,
      "\u0120joy": 7697,
      "\u0120repair": 7698,
      "\u0120fairly": 7699,
      "\u0120meth": 7700,
      "\u0120pup": 7701,
      "\u0120disput": 7702,
      "\u0120notable": 7703,
      "\u0120movie": 7704,
      "\u0120Camp": 7705,
      "\u0120boy": 7706,
      "batch": 7707,
      "\u0120furn": 7708,
      "\u0120historic": 7709,
      "\u0120award": 7710,
      "itz": 7711,
      "illa": 7712,
      "\u0120solving": 7713,
      "\u0120contributing": 7714,
      "\u0120PM": 7715,
      "\u0120Model": 7716,
      "\u0120batch": 7717,
      "\u0120explanation": 7718,
      "\u0120explicit": 7719,
      "\u0120Follow": 7720,
      "\u0120finished": 7721,
      "\u0120frequent": 7722,
      "\u0120farming": 7723,
      "\u0120flav": 7724,
      "\u0120covers": 7725,
      "yroid": 7726,
      "\u0120reput": 7727,
      "\u0120convert": 7728,
      "\u0120handling": 7729,
      "\u0120Cancer": 7730,
      "acles": 7731,
      "teen": 7732,
      "ritis": 7733,
      "\u0120Start": 7734,
      "etics": 7735,
      "\u0120Gard": 7736,
      "\u0120universities": 7737,
      "itical": 7738,
      "\u0120rocks": 7739,
      "\u0120developments": 7740,
      "\u0120danger": 7741,
      "\u0120customer": 7742,
      "\u0120Georg": 7743,
      "\u0120parser": 7744,
      "\u0120kne": 7745,
      "\u0120myst": 7746,
      "\u0120dataset": 7747,
      "\u0120algorithm": 7748,
      "\u0120Bank": 7749,
      "\u0120transc": 7750,
      "\u0120lights": 7751,
      "\u0120experiencing": 7752,
      "\u0120cholesterol": 7753,
      ")))": 7754,
      "pop": 7755,
      "\u0120mur": 7756,
      "\u0120strongly": 7757,
      "Despite": 7758,
      "\u0120Historical": 7759,
      "\u0120Schol": 7760,
      "\u0120ships": 7761,
      "iki": 7762,
      "\u0120Scot": 7763,
      "Man": 7764,
      "\u00e2\u0122\u013a": 7765,
      "root": 7766,
      "\u0120structural": 7767,
      "\u0120exception": 7768,
      "\u0120simultaneously": 7769,
      "BS": 7770,
      "\u0120tag": 7771,
      "tic": 7772,
      "een": 7773,
      "\u0120scan": 7774,
      "\u0120universal": 7775,
      "aws": 7776,
      "\u0120Analysis": 7777,
      "\u0120Richard": 7778,
      "\u0120Create": 7779,
      "\u0120organs": 7780,
      "conc": 7781,
      "\u0120forming": 7782,
      "\u0120scores": 7783,
      "\u0120Ca": 7784,
      "\u0120videos": 7785,
      "ikipedia": 7786,
      "\u0120specialized": 7787,
      "\u0120Community": 7788,
      "arks": 7789,
      "\u0120Times": 7790,
      ">>": 7791,
      "\u0120shed": 7792,
      "[:,": 7793,
      "\u0120pharm": 7794,
      "\u0120neither": 7795,
      "\u0120newly": 7796,
      "ograp": 7797,
      "\u0120embed": 7798,
      "\u0120fest": 7799,
      "\u0120victims": 7800,
      "eries": 7801,
      "capes": 7802,
      "\u0120visitors": 7803,
      "\u0120sizes": 7804,
      "\u0120spin": 7805,
      "save": 7806,
      "\u0120sport": 7807,
      "\u0120bath": 7808,
      "\u0120nervous": 7809,
      "\u0120Rom": 7810,
      "\u0120cleaning": 7811,
      "itals": 7812,
      "car": 7813,
      "axis": 7814,
      "\u0120realm": 7815,
      "\u0120association": 7816,
      "\u0120Wood": 7817,
      "raining": 7818,
      "ocy": 7819,
      "\u0120nu": 7820,
      "\u0120stores": 7821,
      "\u0120dys": 7822,
      "ruption": 7823,
      "\u0120damaged": 7824,
      "\u0120\u00e2\u0122\u00a2": 7825,
      "\u0120eastern": 7826,
      "\u0120respectively": 7827,
      "\u0120encouraged": 7828,
      "\u0120Board": 7829,
      "\u0120trauma": 7830,
      "Lear": 7831,
      "itt": 7832,
      "sequently": 7833,
      "\u0120representing": 7834,
      "\u0120Ma": 7835,
      "\u0120electro": 7836,
      "\u0120tank": 7837,
      "\u0120sessions": 7838,
      "\u0120fu": 7839,
      "\u0120Climate": 7840,
      "\u0120voltage": 7841,
      "\u0120circle": 7842,
      "\u0120influences": 7843,
      "\u0120contributed": 7844,
      "\u0120adds": 7845,
      "\u0120outbre": 7846,
      "\u0120icon": 7847,
      "\u0120Init": 7848,
      "rox": 7849,
      "\u0120Scott": 7850,
      "\u0120fer": 7851,
      "ervice": 7852,
      "fn": 7853,
      "IA": 7854,
      "\u0120'''": 7855,
      "\u0120defe": 7856,
      "attr": 7857,
      "\u0120sharp": 7858,
[...]
